#include "model_data.h"

// We need to keep the data array aligned on some architectures.
#ifdef __has_attribute
#define HAVE_ATTRIBUTE(x) __has_attribute(x)
#else
#define HAVE_ATTRIBUTE(x) 0
#endif
#if HAVE_ATTRIBUTE(aligned) || (defined(__GNUC__) && !defined(__clang__))
#define DATA_ALIGN_ATTRIBUTE __attribute__((aligned(4)))
#else
#define DATA_ALIGN_ATTRIBUTE
#endif
/*const unsigned char fashion_mnist_model_tflite[] DATA_ALIGN_ATTRIBUTE = {
  0x1c, 0x00, 0x00, 0x00, 0x54, 0x46, 0x4c, 0x33, 0x00, 0x00, 0x12, 0x00,
  0x1c, 0x00, 0x04, 0x00, 0x08, 0x00, 0x0c, 0x00, 0x10, 0x00, 0x14, 0x00,
  0x00, 0x00, 0x18, 0x00, 0x12, 0x00, 0x00, 0x00, 0x03, 0x00, 0x00, 0x00,
  0x08, 0x1a, 0x00, 0x00, 0x44, 0x14, 0x00, 0x00, 0x2c, 0x14, 0x00, 0x00,
  0x34, 0x00, 0x00, 0x00, 0x04, 0x00, 0x00, 0x00, 0x01, 0x00, 0x00, 0x00,
  0x04, 0x00, 0x00, 0x00, 0xa8, 0xe6, 0xff, 0xff, 0x08, 0x00, 0x00, 0x00,
  0x0d, 0x00, 0x00, 0x00, 0x13, 0x00, 0x00, 0x00, 0x6d, 0x69, 0x6e, 0x5f,
  0x72, 0x75, 0x6e, 0x74, 0x69, 0x6d, 0x65, 0x5f, 0x76, 0x65, 0x72, 0x73,
  0x69, 0x6f, 0x6e, 0x00, 0x0e, 0x00, 0x00, 0x00, 0xec, 0x13, 0x00, 0x00,
  0xb4, 0x13, 0x00, 0x00, 0xa4, 0x04, 0x00, 0x00, 0x7c, 0x04, 0x00, 0x00,
  0x74, 0x04, 0x00, 0x00, 0x6c, 0x04, 0x00, 0x00, 0x64, 0x04, 0x00, 0x00,
  0xf4, 0x00, 0x00, 0x00, 0x54, 0x00, 0x00, 0x00, 0x4c, 0x00, 0x00, 0x00,
  0x44, 0x00, 0x00, 0x00, 0x24, 0x00, 0x00, 0x00, 0x1c, 0x00, 0x00, 0x00,
  0x04, 0x00, 0x00, 0x00, 0xda, 0xeb, 0xff, 0xff, 0x04, 0x00, 0x00, 0x00,
  0x05, 0x00, 0x00, 0x00, 0x31, 0x2e, 0x35, 0x2e, 0x30, 0x00, 0x00, 0x00,
  0xac, 0xe6, 0xff, 0xff, 0xf2, 0xeb, 0xff, 0xff, 0x04, 0x00, 0x00, 0x00,
  0x10, 0x00, 0x00, 0x00, 0x1c, 0x25, 0xa3, 0x3d, 0x00, 0x69, 0xc6, 0x3e,
  0x16, 0x01, 0x94, 0x3c, 0x12, 0x24, 0x4a, 0x3e, 0xcc, 0xe6, 0xff, 0xff,
  0xd0, 0xe6, 0xff, 0xff, 0x16, 0xec, 0xff, 0xff, 0x04, 0x00, 0x00, 0x00,
  0x90, 0x00, 0x00, 0x00, 0x8a, 0xe4, 0x44, 0x3f, 0x11, 0xb0, 0x2c, 0xbe,
  0xb5, 0x1a, 0x5f, 0x3e, 0xf1, 0x9b, 0x1c, 0xbd, 0x64, 0xf5, 0x33, 0x3e,
  0xa4, 0xaa, 0xa1, 0xbf, 0x3f, 0x51, 0xfe, 0x3e, 0xc6, 0x10, 0x87, 0xbe,
  0x4a, 0x83, 0xd1, 0x3d, 0x2b, 0xe7, 0xcc, 0xbf, 0x2c, 0x3c, 0xe5, 0xbd,
  0x84, 0xcb, 0x47, 0xbf, 0x26, 0x4d, 0x21, 0x3f, 0xb2, 0xc6, 0x97, 0x3d,
  0xde, 0x02, 0xa9, 0xbe, 0xa6, 0x21, 0x11, 0x3f, 0x36, 0xb1, 0xdd, 0x3e,
  0x07, 0x61, 0xc6, 0xbe, 0x8c, 0xa6, 0x1a, 0x3e, 0x4e, 0x4d, 0xe1, 0x3d,
  0xc7, 0xa0, 0xfe, 0xbc, 0xf9, 0x37, 0x06, 0x3d, 0xf7, 0x71, 0x83, 0x3d,
  0x82, 0xfb, 0x31, 0xbe, 0x95, 0x0a, 0xc7, 0x3e, 0x01, 0xe6, 0x53, 0x3f,
  0xcc, 0x7a, 0x63, 0xbf, 0x85, 0xee, 0x14, 0x3f, 0xbf, 0xe0, 0xad, 0x3e,
  0x96, 0x0c, 0x71, 0x3d, 0xc7, 0x57, 0x15, 0x3f, 0xae, 0xc6, 0x1d, 0x3f,
  0xc6, 0x19, 0x24, 0xbd, 0xb9, 0xd3, 0x85, 0xbc, 0x54, 0xcf, 0x5a, 0xbe,
  0x68, 0x99, 0x5a, 0x3e, 0xb2, 0xec, 0xff, 0xff, 0x04, 0x00, 0x00, 0x00,
  0x60, 0x03, 0x00, 0x00, 0x7f, 0xac, 0x8d, 0xbc, 0xcc, 0xd1, 0xea, 0xbe,
  0x4c, 0xe8, 0x6a, 0xbe, 0xd9, 0xf2, 0x18, 0xbf, 0xc3, 0x8c, 0xdc, 0x3d,
  0x73, 0x34, 0x5e, 0x3e, 0x01, 0x70, 0x84, 0x3e, 0xd4, 0xd4, 0xe5, 0x3e,
  0x15, 0xf7, 0x65, 0xbe, 0xa6, 0x25, 0x1d, 0x3f, 0x39, 0x77, 0x0c, 0xbe,
  0x23, 0x3d, 0x2c, 0xbe, 0xb0, 0x83, 0x8f, 0x3d, 0xe7, 0x79, 0x30, 0xbe,
  0xa7, 0x18, 0x9c, 0xbf, 0xd8, 0x97, 0xca, 0x3e, 0x6a, 0x1e, 0x02, 0x3e,
  0x10, 0x2f, 0x93, 0xbe, 0xaa, 0x70, 0x04, 0xbe, 0x48, 0xaf, 0x84, 0x3e,
  0x96, 0x43, 0x4e, 0xbe, 0xe4, 0x42, 0xd6, 0x3e, 0x59, 0xa3, 0x37, 0xbf,
  0x7a, 0xd7, 0x09, 0x3f, 0xaf, 0xf8, 0x7c, 0x3e, 0xda, 0x65, 0xba, 0xbe,
  0x5b, 0x47, 0x68, 0xbf, 0x20, 0x9e, 0x3a, 0x3d, 0xec, 0xf6, 0x24, 0xbe,
  0x23, 0xce, 0x7a, 0xbf, 0x35, 0xd3, 0x1a, 0xbd, 0xe8, 0xd1, 0x6c, 0xbe,
  0x18, 0x7b, 0x8a, 0x3e, 0x1f, 0x3b, 0xb3, 0x3e, 0x2f, 0x30, 0x08, 0xbf,
  0x66, 0x2e, 0xe8, 0x3e, 0xa3, 0x25, 0x47, 0x3e, 0xec, 0x2f, 0xbf, 0x3d,
  0x31, 0xd3, 0xb2, 0x3e, 0x6e, 0xb5, 0x86, 0x3e, 0x22, 0x0a, 0x7b, 0xbe,
  0x59, 0x86, 0x0f, 0x3f, 0xa0, 0x8a, 0xe2, 0xbe, 0x3e, 0x73, 0x12, 0x3f,
  0x59, 0xc9, 0x35, 0xbe, 0xee, 0xf5, 0x15, 0xbe, 0x8f, 0x64, 0x32, 0x3f,
  0xba, 0xb6, 0xaa, 0xbe, 0x69, 0xe8, 0x77, 0xbb, 0x6b, 0x12, 0xa8, 0xbe,
  0x01, 0xd5, 0xbb, 0x3e, 0x71, 0xa8, 0x9c, 0x3e, 0xef, 0x62, 0x9b, 0x3e,
  0x0a, 0x15, 0x82, 0x3e, 0x7b, 0x82, 0xc5, 0xbe, 0x9d, 0x0b, 0xec, 0x3e,
  0x80, 0x59, 0x24, 0xbe, 0xb8, 0xd2, 0x35, 0xbe, 0xc8, 0xa5, 0x1a, 0x3f,
  0x51, 0x2a, 0xb3, 0x3d, 0xb9, 0x0f, 0x35, 0x3d, 0xf0, 0xdb, 0x28, 0xbf,
  0x45, 0x1d, 0x28, 0x3f, 0x43, 0x26, 0xf1, 0xbe, 0x55, 0xf4, 0xb7, 0xbd,
  0x08, 0x5a, 0xd3, 0x3e, 0x6a, 0xd8, 0x09, 0x3e, 0xa1, 0xe5, 0x77, 0x3e,
  0xec, 0xae, 0x26, 0x3e, 0xce, 0x46, 0x29, 0xbc, 0xcd, 0xd4, 0x0e, 0x3c,
  0x33, 0x40, 0xbc, 0xbe, 0xc1, 0xc0, 0x07, 0x3f, 0xee, 0x9e, 0xec, 0xbe,
  0x32, 0x50, 0xe2, 0x3e, 0x4d, 0xde, 0xd5, 0x3e, 0x31, 0x0e, 0x31, 0xbe,
  0x4a, 0xcb, 0x5e, 0x3f, 0x4b, 0x6f, 0x38, 0x3f, 0x47, 0xf0, 0x26, 0x3e,
  0x56, 0x1a, 0xfd, 0xbe, 0x1d, 0x93, 0xa9, 0x3f, 0x6c, 0x95, 0x5b, 0x3f,
  0xae, 0x74, 0x9d, 0xbe, 0x6c, 0xb8, 0xfe, 0x3e, 0xaa, 0xa8, 0x99, 0x3c,
  0xdc, 0xe6, 0x0e, 0x3f, 0xc0, 0xbe, 0x0d, 0x3f, 0x72, 0x62, 0x1f, 0x3b,
  0xfb, 0xc6, 0x50, 0x3d, 0x95, 0x81, 0x32, 0x3f, 0x14, 0x89, 0x0b, 0xbe,
  0xd8, 0xa3, 0x5b, 0xbe, 0x97, 0x00, 0x97, 0x3f, 0x4f, 0xe9, 0xbc, 0x3e,
  0xc4, 0x93, 0x3f, 0x3e, 0xcd, 0x46, 0x81, 0x3d, 0x39, 0x65, 0xbd, 0xbe,
  0xc4, 0xfd, 0x8c, 0x3e, 0x59, 0xc6, 0x2c, 0x3e, 0x81, 0x1b, 0x23, 0xbd,
  0xe9, 0xb3, 0xdc, 0x3e, 0xb0, 0x41, 0xcb, 0xbe, 0x65, 0xb4, 0x05, 0x3f,
  0x8b, 0xf1, 0x24, 0xbd, 0xa7, 0xc6, 0x49, 0x3f, 0x67, 0xa8, 0x2e, 0xbf,
  0x0d, 0x32, 0x01, 0x3f, 0xbf, 0x13, 0xeb, 0x3d, 0x44, 0x2a, 0x6a, 0xbe,
  0x55, 0x0b, 0x8e, 0xbe, 0x3e, 0xe9, 0x90, 0x3e, 0xc6, 0xc9, 0x00, 0x3e,
  0x12, 0x63, 0x92, 0xbe, 0x62, 0xb4, 0xcf, 0xbe, 0xb0, 0xe6, 0x16, 0x3d,
  0x84, 0x70, 0xd4, 0x3e, 0xcb, 0xdf, 0x76, 0x3e, 0xb9, 0x92, 0xb0, 0x3d,
  0x31, 0x28, 0xc4, 0x3d, 0x5c, 0x09, 0x09, 0x3e, 0x4b, 0x5f, 0x33, 0xbe,
  0x32, 0x39, 0xb1, 0xbe, 0x87, 0x9d, 0xb9, 0x3e, 0x74, 0x89, 0x81, 0x3e,
  0xb2, 0xa7, 0x6a, 0xbd, 0x49, 0xba, 0x05, 0xbd, 0x7f, 0x93, 0x94, 0xbd,
  0x48, 0xcb, 0xd4, 0xbc, 0x5b, 0x53, 0x41, 0x3e, 0x27, 0xd2, 0x5f, 0xbe,
  0x40, 0xa4, 0x01, 0x3f, 0xe6, 0xa8, 0x30, 0x3e, 0xe5, 0x80, 0xcd, 0xbe,
  0x8c, 0x03, 0x32, 0x3e, 0x23, 0x57, 0xaa, 0x3d, 0x82, 0x0c, 0x46, 0xbe,
  0xbc, 0x1f, 0x18, 0xbf, 0x45, 0x2d, 0x02, 0x3f, 0x7b, 0xac, 0xcc, 0xbe,
  0x37, 0xd0, 0x8a, 0x3e, 0x92, 0x60, 0xab, 0xbd, 0xd1, 0x49, 0x27, 0x3f,
  0xfc, 0x0f, 0x0b, 0x3e, 0x17, 0xca, 0xea, 0xbe, 0xd8, 0x38, 0x5f, 0x3f,
  0x52, 0x36, 0x98, 0xbe, 0x94, 0x12, 0xcb, 0xbd, 0xf2, 0xdd, 0x08, 0xbe,
  0x9b, 0xac, 0xc5, 0x3d, 0xea, 0x2f, 0x1d, 0x3f, 0xa0, 0x4f, 0x77, 0x3e,
  0x24, 0xcd, 0x37, 0x3e, 0xcd, 0x28, 0x60, 0x3e, 0x22, 0x65, 0x4a, 0xbe,
  0xe0, 0xf6, 0xcd, 0x3e, 0x88, 0x98, 0xda, 0xbd, 0x63, 0x21, 0x44, 0x3f,
  0x52, 0x05, 0x85, 0x3e, 0x4f, 0x3b, 0x61, 0x3e, 0xe3, 0xc9, 0xf1, 0xbd,
  0x94, 0x6d, 0x9f, 0xbe, 0x79, 0xdd, 0x82, 0x3f, 0x96, 0x37, 0x62, 0xbe,
  0x5d, 0x24, 0x3d, 0x3e, 0xc2, 0x7b, 0xd2, 0x3e, 0x60, 0x5c, 0x42, 0x3f,
  0x35, 0x61, 0xb2, 0x3d, 0xd0, 0x1d, 0x30, 0x3d, 0x34, 0x9d, 0x1f, 0x3f,
  0x09, 0xe0, 0x5d, 0xbd, 0x8b, 0x3d, 0x9e, 0x3e, 0x59, 0x06, 0x78, 0xbe,
  0xa9, 0x23, 0x59, 0xbe, 0x04, 0x39, 0x2a, 0x3f, 0x65, 0x39, 0x1a, 0xbd,
  0xee, 0x72, 0x23, 0x3e, 0x22, 0xc1, 0x2a, 0x3f, 0x1b, 0x1e, 0xf1, 0x3e,
  0x4f, 0xbd, 0x14, 0x3e, 0x35, 0x42, 0x04, 0xbf, 0x95, 0xfe, 0xd2, 0x3e,
  0xaa, 0x2b, 0xd3, 0x3e, 0x55, 0x14, 0xb3, 0x3e, 0xe8, 0xa5, 0x28, 0xbf,
  0xc6, 0x90, 0x96, 0x3f, 0x05, 0x0b, 0x04, 0xbf, 0x77, 0x37, 0xae, 0xbd,
  0xc3, 0xd0, 0x59, 0xbe, 0xf2, 0x32, 0xbc, 0x3d, 0xd7, 0x36, 0x29, 0x3f,
  0x22, 0x7b, 0x5c, 0xbe, 0x29, 0x77, 0xad, 0x3d, 0x95, 0x7b, 0x27, 0x3f,
  0xcc, 0xad, 0xc9, 0xbe, 0xaa, 0xe4, 0x7e, 0xbb, 0xb5, 0x67, 0xd2, 0xbd,
  0x2d, 0xf2, 0xf6, 0x3e, 0xa2, 0xe5, 0x38, 0xbf, 0x5c, 0xea, 0xef, 0x3e,
  0x17, 0x92, 0x4a, 0x3d, 0x56, 0x82, 0x3d, 0x3f, 0x88, 0x06, 0x96, 0x3e,
  0xa7, 0xc6, 0xca, 0x3e, 0xc0, 0xcd, 0x17, 0x3e, 0x0f, 0xe4, 0x6b, 0x3e,
  0xca, 0x6e, 0x4c, 0xbe, 0xb7, 0x32, 0x80, 0xbc, 0x4a, 0x55, 0xf2, 0x3e,
  0x11, 0x84, 0xe2, 0xbe, 0x25, 0x71, 0x24, 0xbf, 0x9f, 0xf8, 0x67, 0x3e,
  0xec, 0x98, 0x21, 0x3f, 0x92, 0x08, 0x5e, 0x3e, 0xc8, 0xc7, 0x53, 0xbf,
  0x8e, 0x44, 0x2c, 0x3f, 0xdc, 0xea, 0xff, 0xff, 0xe0, 0xea, 0xff, 0xff,
  0xe4, 0xea, 0xff, 0xff, 0x2a, 0xf0, 0xff, 0xff, 0x04, 0x00, 0x00, 0x00,
  0x18, 0x00, 0x00, 0x00, 0x91, 0xd6, 0xf1, 0x3d, 0xe2, 0xd1, 0x32, 0x3d,
  0x32, 0x16, 0x74, 0x3e, 0x8e, 0x96, 0xfc, 0x3c, 0x92, 0x92, 0x93, 0x3c,
  0x5a, 0x61, 0x03, 0xbc, 0x4e, 0xf0, 0xff, 0xff, 0x04, 0x00, 0x00, 0x00,
  0x00, 0x0f, 0x00, 0x00, 0xa6, 0x5c, 0x5c, 0x3e, 0xd1, 0x81, 0x46, 0x3f,
  0x8f, 0x26, 0xdc, 0x3d, 0xc3, 0x8e, 0xb6, 0x3e, 0xae, 0x28, 0x92, 0xbe,
  0xfa, 0x51, 0xab, 0xbd, 0x20, 0x5c, 0x90, 0xbd, 0xfb, 0x68, 0x2c, 0x3e,
  0x5e, 0xe8, 0x4a, 0x3e, 0xf1, 0xb4, 0xa8, 0x3d, 0x6e, 0x71, 0x11, 0xbe,
  0x02, 0x23, 0x3c, 0x3e, 0x1a, 0x8d, 0xa8, 0xba, 0xd3, 0x45, 0x50, 0xbe,
  0x5c, 0x93, 0xcc, 0xbd, 0x4c, 0x86, 0x32, 0x3e, 0x29, 0xfc, 0x98, 0xbd,
  0x53, 0xab, 0xb8, 0x3b, 0xd1, 0x98, 0x0d, 0xbd, 0xdc, 0x00, 0xc1, 0xbe,
  0x06, 0x48, 0xee, 0xbe, 0x33, 0x35, 0x07, 0x3e, 0xd6, 0x3f, 0x09, 0x3d,
  0xe0, 0x0f, 0x10, 0xbf, 0x47, 0xcc, 0x08, 0x3e, 0xa3, 0x45, 0x7c, 0x3e,
  0xd1, 0x74, 0x8b, 0x3e, 0x87, 0x30, 0x82, 0x3e, 0x68, 0xfa, 0x38, 0xb7,
  0x33, 0x90, 0xc4, 0xbe, 0x99, 0x17, 0xd4, 0xbd, 0x60, 0x80, 0xab, 0xbd,
  0x4e, 0x60, 0x3a, 0xba, 0x79, 0x1d, 0x66, 0x3e, 0x1c, 0xf1, 0x2e, 0xbe,
  0xd4, 0x3c, 0x9d, 0xbe, 0x70, 0xa8, 0x69, 0x3d, 0xc7, 0xa7, 0xb7, 0xbd,
  0x29, 0xe3, 0x63, 0x3d, 0xf7, 0xe6, 0x1c, 0x3e, 0xa9, 0xdc, 0x5e, 0x3d,
  0x72, 0x86, 0xa1, 0xbe, 0x12, 0x3a, 0xb2, 0xbe, 0xb8, 0xe5, 0x98, 0xbe,
  0x12, 0x88, 0x2a, 0x3d, 0x86, 0xc9, 0x9f, 0xbc, 0x68, 0x4f, 0x01, 0x3e,
  0x62, 0x1b, 0x57, 0xbe, 0x10, 0x55, 0xf6, 0xbd, 0xae, 0xd9, 0x93, 0x3d,
  0x5a, 0x59, 0xa6, 0xbe, 0x01, 0x58, 0xf6, 0xbd, 0x51, 0x44, 0xd4, 0x3e,
  0xdd, 0x4d, 0xbb, 0xbe, 0xf9, 0xe7, 0x00, 0x3e, 0xc9, 0x0f, 0x95, 0xba,
  0x7c, 0xe0, 0x9e, 0x3d, 0x19, 0x46, 0x6b, 0xbe, 0xac, 0xd5, 0xff, 0xbe,
  0x5d, 0x59, 0xa8, 0xbe, 0x30, 0x64, 0x9f, 0x3e, 0xd4, 0x14, 0x7b, 0xbe,
  0xa6, 0xc0, 0x55, 0x3e, 0x1b, 0xac, 0x1a, 0xbc, 0x29, 0x5f, 0x17, 0xbe,
  0x1f, 0x2a, 0x82, 0x3e, 0x85, 0xdd, 0x04, 0xbd, 0x94, 0x7e, 0x59, 0x3c,
  0xb1, 0x85, 0xf6, 0x3d, 0x36, 0x94, 0x61, 0xbe, 0x84, 0x70, 0x58, 0xbe,
  0x84, 0xe9, 0x5e, 0xbc, 0xb0, 0x7e, 0x51, 0x3e, 0xf1, 0xe8, 0x3f, 0xbf,
  0xf3, 0x5d, 0x02, 0xbe, 0x9a, 0x40, 0x1e, 0xbe, 0x13, 0x08, 0x33, 0x3d,
  0xa7, 0xb3, 0xbb, 0xbc, 0x69, 0xb9, 0xbe, 0x3c, 0xd3, 0xc4, 0xed, 0xbd,
  0x81, 0xa4, 0xa0, 0x3e, 0x4d, 0x57, 0x02, 0xbe, 0x4f, 0x67, 0x8d, 0xbe,
  0x46, 0xb3, 0x02, 0xbe, 0x60, 0x66, 0x0c, 0x3e, 0xa1, 0x0e, 0x4f, 0xbe,
  0x7c, 0xc3, 0x40, 0x3d, 0xdb, 0x85, 0x15, 0x3e, 0xdb, 0x23, 0xd6, 0xbd,
  0x81, 0xf8, 0x8c, 0x3e, 0xda, 0xc9, 0xe7, 0x3d, 0x01, 0x65, 0xee, 0xbd,
  0x7f, 0xe2, 0xb9, 0x3e, 0x9a, 0xd1, 0x9b, 0xbe, 0x9a, 0xaa, 0x0d, 0x3d,
  0x1c, 0xeb, 0x1b, 0x3e, 0xf7, 0x75, 0x36, 0x3e, 0x21, 0xeb, 0xdf, 0xbd,
  0xc0, 0x13, 0x55, 0xbe, 0x61, 0x24, 0x39, 0xbc, 0x94, 0xa1, 0x43, 0x3d,
  0xbc, 0x85, 0x40, 0xbb, 0xf8, 0x39, 0x8f, 0x3d, 0x01, 0x9e, 0x0b, 0xbf,
  0x57, 0x22, 0x4e, 0xbe, 0x78, 0x26, 0xf7, 0x3d, 0x21, 0xcf, 0x73, 0xbe,
  0x9a, 0xfd, 0x46, 0xbf, 0x43, 0x91, 0x35, 0x3e, 0x6f, 0xa8, 0xe2, 0x3d,
  0x18, 0x95, 0xb5, 0xbd, 0xf5, 0xf8, 0x9c, 0x3e, 0x73, 0xc0, 0x92, 0xbf,
  0xaf, 0x1f, 0xc4, 0xbe, 0x43, 0x53, 0x7b, 0xbe, 0x76, 0xcf, 0x59, 0x3e,
  0x19, 0xa9, 0xf4, 0x3d, 0x19, 0xb3, 0x78, 0xbe, 0xc6, 0x6d, 0x5d, 0xbe,
  0xe8, 0x87, 0x7f, 0xbe, 0xa9, 0x22, 0x91, 0x3c, 0x0d, 0x29, 0x4b, 0x3e,
  0x26, 0xa8, 0x02, 0xbe, 0x81, 0x26, 0xf2, 0x3d, 0x19, 0x24, 0x8d, 0x3d,
  0x11, 0x1e, 0x36, 0xbe, 0x41, 0xa3, 0x7a, 0xbe, 0x5c, 0x63, 0x81, 0xbe,
  0xba, 0xc7, 0x35, 0xbe, 0x25, 0x66, 0xb8, 0x3e, 0x10, 0xf3, 0xa0, 0x3d,
  0x5b, 0x5c, 0x2c, 0xbf, 0xd5, 0xac, 0x7f, 0xbd, 0x8a, 0xfb, 0x01, 0x3d,
  0x8e, 0xbd, 0x1d, 0x3e, 0xf4, 0x08, 0x0d, 0x3d, 0x23, 0xc8, 0xd3, 0xbe,
  0x26, 0x76, 0x77, 0xbf, 0x86, 0x5a, 0x29, 0xbe, 0x2f, 0x17, 0xa9, 0x3e,
  0x60, 0xda, 0x4b, 0x3e, 0x2f, 0x08, 0x96, 0xbe, 0xa1, 0x7b, 0x9c, 0xbe,
  0x5d, 0x81, 0xe7, 0xbd, 0xfd, 0x9e, 0x30, 0x3e, 0x76, 0x59, 0xac, 0x3e,
  0xf6, 0x01, 0xa0, 0xbe, 0x1a, 0xeb, 0x0c, 0x3e, 0x2c, 0xff, 0x42, 0xbe,
  0x84, 0x7d, 0x39, 0xbc, 0xb4, 0xce, 0x5f, 0xbe, 0xc5, 0xad, 0xcb, 0x3e,
  0xc3, 0x90, 0x46, 0x3d, 0x35, 0x9b, 0xa7, 0xbd, 0xcc, 0x9d, 0x17, 0x3e,
  0x89, 0x0e, 0x3a, 0xbf, 0x91, 0x00, 0xa1, 0xbc, 0xef, 0x60, 0x99, 0xbd,
  0xfe, 0xbc, 0x46, 0xbd, 0xb0, 0x87, 0xb0, 0x3d, 0xf0, 0xfb, 0x8e, 0x3e,
  0x5b, 0xe1, 0x12, 0xbf, 0x64, 0x11, 0x86, 0xbe, 0xe8, 0x86, 0xc2, 0xbd,
  0xa4, 0xdf, 0x45, 0x3e, 0x59, 0xe4, 0xe2, 0xbd, 0xf8, 0xbf, 0xf7, 0xbe,
  0xcc, 0x38, 0xf0, 0x3d, 0x2a, 0xdc, 0x87, 0x3e, 0x48, 0x6d, 0x97, 0x3e,
  0xb6, 0x0a, 0x13, 0xbe, 0x6f, 0xd8, 0x22, 0x3d, 0xf4, 0x37, 0x64, 0x3d,
  0x0e, 0x8f, 0xd4, 0x3e, 0x40, 0xf2, 0xd1, 0xbe, 0x3c, 0x8c, 0x0c, 0x3f,
  0x28, 0xd8, 0x46, 0x3d, 0x02, 0x3c, 0x5b, 0x3c, 0x7b, 0xbd, 0xf8, 0x3e,
  0xfd, 0x13, 0x77, 0xbf, 0x16, 0xa6, 0xa1, 0xbd, 0xc0, 0x4a, 0xc1, 0xbd,
  0xb6, 0x50, 0xcb, 0x3e, 0xda, 0x8e, 0x0c, 0x3e, 0xb0, 0xcf, 0x64, 0x3f,
  0x2b, 0xf8, 0x9c, 0xbe, 0x03, 0x26, 0xff, 0xbe, 0x07, 0xc6, 0x2f, 0x3e,
  0x19, 0x97, 0xf4, 0xbd, 0x19, 0x09, 0x7c, 0xbe, 0x27, 0x46, 0x9c, 0xbe,
  0x6a, 0x53, 0xe1, 0x3d, 0x2c, 0xba, 0x67, 0xbe, 0x4e, 0x16, 0x08, 0xbe,
  0x9a, 0x8a, 0xa3, 0xbe, 0x65, 0xad, 0xb5, 0x3e, 0x4c, 0xc5, 0x84, 0xbe,
  0x6e, 0xaf, 0x0e, 0xbe, 0xb0, 0x94, 0x1e, 0x3e, 0x5c, 0xce, 0xd7, 0x3d,
  0xd8, 0xd2, 0xff, 0x3d, 0x05, 0x74, 0x62, 0xbd, 0x2c, 0x62, 0x1d, 0xbf,
  0x73, 0x79, 0x89, 0xbe, 0xe2, 0xf0, 0x11, 0xbe, 0xf2, 0x0f, 0x1f, 0xbd,
  0x0b, 0xa7, 0x07, 0x3e, 0x99, 0xa2, 0x84, 0x3e, 0x16, 0x0b, 0x0d, 0xbf,
  0xb1, 0x7a, 0x24, 0xbe, 0xbc, 0x20, 0x92, 0x3d, 0xaf, 0xec, 0x0f, 0x3d,
  0x49, 0x6b, 0x72, 0xbe, 0x07, 0x60, 0xbd, 0x3d, 0xd6, 0xd0, 0x5e, 0x3e,
  0x75, 0xc8, 0xca, 0xbe, 0x98, 0xb2, 0x39, 0x3e, 0x10, 0x81, 0xaa, 0x3d,
  0xf4, 0x5b, 0x12, 0xbe, 0xa1, 0x5e, 0x77, 0x3d, 0x77, 0x5f, 0x43, 0xbd,
  0x70, 0xda, 0xa7, 0xbe, 0x5e, 0x39, 0x86, 0xbd, 0x94, 0xea, 0x14, 0x3e,
  0x76, 0xa0, 0xca, 0x3e, 0x59, 0x71, 0x45, 0x3d, 0x82, 0x7f, 0x93, 0xbd,
  0x6d, 0x82, 0x9f, 0x3d, 0x9d, 0x6b, 0xbd, 0xbe, 0x87, 0x6d, 0x5d, 0xbe,
  0x37, 0x56, 0x3d, 0x3e, 0x8f, 0xa3, 0x04, 0xbe, 0x5f, 0xa7, 0x05, 0x3b,
  0x73, 0x98, 0x06, 0xbe, 0xc8, 0x91, 0x75, 0x3e, 0xb6, 0x6d, 0x35, 0xbd,
  0x32, 0x7c, 0x3a, 0x3e, 0xd7, 0x9e, 0xde, 0xbd, 0x84, 0xc6, 0x90, 0x3d,
  0x04, 0x6c, 0xce, 0xbd, 0x4a, 0x70, 0x9a, 0xbe, 0xbf, 0xd9, 0x12, 0xbf,
  0x21, 0xd2, 0xbb, 0xbd, 0x60, 0x59, 0x29, 0x3e, 0xac, 0xe1, 0x9a, 0xbe,
  0x6c, 0x74, 0xaf, 0xbe, 0xfa, 0x58, 0x2b, 0xbd, 0x82, 0x16, 0xd1, 0xbd,
  0xdb, 0x7c, 0xbe, 0x3e, 0x32, 0xb3, 0x97, 0xbd, 0x9a, 0x9f, 0xa5, 0xbe,
  0x00, 0x73, 0x4a, 0xbd, 0xce, 0x90, 0xc2, 0x3d, 0x0d, 0x0d, 0xd6, 0xbd,
  0x38, 0x11, 0x24, 0xbe, 0x64, 0x45, 0xa3, 0xbe, 0x9d, 0x86, 0xb5, 0xbe,
  0x30, 0xa4, 0x29, 0xbe, 0x8d, 0x80, 0x5c, 0x3d, 0x75, 0x69, 0x84, 0xbe,
  0x10, 0xda, 0x82, 0x3e, 0xe7, 0xd7, 0x81, 0x3e, 0x72, 0x39, 0x93, 0x3e,
  0xc1, 0x8f, 0x7e, 0xbe, 0xc8, 0x30, 0x90, 0xbe, 0x65, 0x9b, 0x95, 0xbe,
  0xda, 0x21, 0xde, 0x3e, 0xf6, 0x7f, 0x25, 0xbe, 0x28, 0x85, 0xa7, 0xbe,
  0x50, 0x4d, 0x1d, 0xbf, 0xb2, 0x45, 0xdc, 0x3c, 0x11, 0x24, 0xfe, 0x3d,
  0xda, 0xb3, 0x3f, 0x3d, 0x09, 0x0d, 0x48, 0x3e, 0x10, 0x45, 0xb6, 0xbd,
  0x10, 0x29, 0x3b, 0xbe, 0x92, 0x16, 0x81, 0x3d, 0x2c, 0xf9, 0xbd, 0x3e,
  0x5f, 0xe9, 0xf8, 0xbc, 0xcf, 0x93, 0x8f, 0x3b, 0xd0, 0xcc, 0x7b, 0xbe,
  0xc0, 0xd9, 0xd5, 0xbe, 0x37, 0x0a, 0x86, 0x3e, 0x71, 0x51, 0xcf, 0x3c,
  0x81, 0xbd, 0x2b, 0xbc, 0x5d, 0xff, 0x4e, 0x3e, 0x20, 0x3d, 0x84, 0x3e,
  0x4d, 0xd4, 0x27, 0x3f, 0xbd, 0xe1, 0x3a, 0xbe, 0x44, 0x46, 0xb6, 0xbf,
  0x11, 0x6c, 0xd0, 0xbe, 0xa0, 0xa9, 0x8f, 0x3c, 0xf8, 0x00, 0x13, 0x3e,
  0xea, 0x20, 0xab, 0xbe, 0x6e, 0x46, 0xf2, 0x3e, 0xae, 0xd8, 0x7d, 0xbd,
  0x48, 0xd8, 0xbd, 0x3e, 0x53, 0x94, 0x03, 0xbd, 0x34, 0x6f, 0x59, 0x3d,
  0x40, 0x0e, 0x95, 0xbe, 0xa5, 0x37, 0x0f, 0xbf, 0x65, 0x47, 0xe6, 0x3d,
  0x2c, 0x84, 0x96, 0x3c, 0x8d, 0x1d, 0x7f, 0xbd, 0x63, 0x59, 0x53, 0xbd,
  0x73, 0xe8, 0xd8, 0xbe, 0xbf, 0x29, 0x7e, 0x3e, 0x9e, 0xd3, 0x35, 0x3d,
  0x9a, 0x1a, 0x2e, 0x3e, 0x37, 0x5d, 0x48, 0xbe, 0x4b, 0x6f, 0x02, 0x3e,
  0xd4, 0x9b, 0x94, 0xbe, 0x13, 0x99, 0x4d, 0xbd, 0x16, 0x75, 0x29, 0xbf,
  0x0b, 0x57, 0x86, 0xbe, 0x2e, 0xec, 0x4a, 0xbe, 0xd0, 0x3a, 0x4b, 0x3e,
  0xd1, 0xec, 0x63, 0xbd, 0xb0, 0xef, 0x8a, 0x3e, 0x7a, 0x21, 0xad, 0xbe,
  0xa4, 0xf8, 0x10, 0x3e, 0x36, 0xb1, 0x5f, 0xbd, 0xc8, 0x69, 0x2e, 0x3e,
  0x3a, 0x62, 0x50, 0xbe, 0xfa, 0x97, 0x6c, 0xbe, 0xf5, 0x88, 0x6f, 0xbd,
  0xea, 0x5b, 0x84, 0x3d, 0xcb, 0x99, 0xdf, 0xbd, 0xa8, 0x62, 0x90, 0xbe,
  0xc4, 0x93, 0xb5, 0xbc, 0xa2, 0x75, 0xc6, 0xbd, 0x2c, 0x3f, 0x0d, 0xbe,
  0x86, 0xb7, 0x72, 0xbc, 0x9d, 0x33, 0x43, 0xbd, 0xe4, 0x57, 0x49, 0xbe,
  0x4f, 0x03, 0xb2, 0x3e, 0x5c, 0x4d, 0x5f, 0xbe, 0xdd, 0x66, 0x14, 0xbe,
  0x70, 0x84, 0x6a, 0xbe, 0x43, 0x4d, 0x2d, 0x3e, 0xb8, 0x16, 0x81, 0xbd,
  0xd0, 0x10, 0xe4, 0xbe, 0x5f, 0x1e, 0x0d, 0xbe, 0x95, 0xe7, 0x6a, 0xbe,
  0x0b, 0x2e, 0xf0, 0xbd, 0x12, 0x07, 0xcd, 0xbd, 0xd2, 0xe3, 0xf9, 0xbd,
  0x3d, 0x41, 0xca, 0xbd, 0x52, 0x21, 0xe5, 0xbc, 0xd1, 0xcc, 0x53, 0x3e,
  0x62, 0xb6, 0x8b, 0x3e, 0xf4, 0x2e, 0x6d, 0xbe, 0x8c, 0x01, 0xaa, 0xbe,
  0x14, 0xd9, 0x43, 0x3d, 0x54, 0xa5, 0xb8, 0xbd, 0x18, 0x52, 0xc4, 0xbd,
  0x68, 0x2c, 0x83, 0x3d, 0x30, 0x7a, 0xbe, 0x3c, 0xa1, 0xf2, 0xe1, 0xbe,
  0xa7, 0xbc, 0xec, 0xbd, 0x2c, 0x15, 0x1f, 0x3e, 0x5b, 0x0e, 0x41, 0xbf,
  0x8a, 0xcd, 0x3d, 0xbe, 0x62, 0xd4, 0xf0, 0xbd, 0xd5, 0x54, 0xd5, 0x3d,
  0xe8, 0xd7, 0x52, 0xbe, 0xf4, 0x6f, 0xac, 0x3d, 0x1a, 0x04, 0xac, 0xbe,
  0xf6, 0xaa, 0x6c, 0x3e, 0x58, 0x8f, 0x67, 0x3e, 0x63, 0x74, 0xa1, 0xbe,
  0xcc, 0x83, 0x53, 0xbd, 0x64, 0xb0, 0x98, 0x3e, 0x01, 0xdc, 0x38, 0x3e,
  0x35, 0x6e, 0x64, 0x3e, 0x7e, 0x8d, 0x8f, 0x3e, 0x8a, 0x3e, 0x8d, 0xbe,
  0x0d, 0xee, 0xde, 0x3e, 0xf1, 0xc3, 0xec, 0xbd, 0x24, 0x60, 0x0e, 0xbe,
  0x2a, 0xce, 0x96, 0x3e, 0xbf, 0xb8, 0x9b, 0xbe, 0xba, 0x33, 0x98, 0xbe,
  0xb2, 0x46, 0xff, 0xbe, 0x0c, 0xf5, 0xa2, 0xbe, 0x7c, 0xc2, 0xad, 0x3c,
  0x4a, 0xa8, 0xe3, 0xbe, 0xab, 0x1f, 0x50, 0xbd, 0xce, 0x0d, 0x95, 0xbd,
  0x54, 0x44, 0xb5, 0x3e, 0x22, 0xf6, 0xee, 0xbd, 0xe3, 0xd7, 0x39, 0xbf,
  0xd4, 0xda, 0xcc, 0xbe, 0x76, 0x93, 0xdf, 0x3d, 0xea, 0x78, 0x88, 0xbd,
  0xd5, 0x32, 0x57, 0xbe, 0x73, 0xb7, 0x6a, 0x3d, 0x79, 0xdc, 0x1a, 0xbe,
  0x83, 0xf5, 0x9e, 0x3d, 0x8a, 0xd4, 0x55, 0x3c, 0x04, 0x74, 0xb0, 0xbe,
  0xf6, 0x4c, 0x21, 0xbf, 0x7b, 0xb6, 0x37, 0xbe, 0x19, 0x93, 0x77, 0x3e,
  0x54, 0xc8, 0xd1, 0x3e, 0x39, 0x1a, 0x9c, 0xbd, 0xfe, 0xaa, 0x19, 0xbf,
  0xe3, 0xc1, 0x4d, 0x3e, 0x92, 0xe3, 0x4a, 0xbe, 0xa1, 0x0c, 0x6d, 0x3d,
  0xad, 0x67, 0x12, 0x3d, 0x3c, 0x8a, 0x2d, 0x3e, 0x7a, 0x86, 0x00, 0x3e,
  0xd5, 0x8d, 0x3f, 0x3e, 0x10, 0x79, 0xe1, 0xbc, 0x60, 0xa7, 0xba, 0xbd,
  0x6f, 0xaa, 0x58, 0x3e, 0x59, 0xf1, 0x52, 0xbe, 0x87, 0x46, 0x0f, 0xbf,
  0x5b, 0x47, 0x16, 0xbe, 0xb1, 0x5c, 0x08, 0xbe, 0x14, 0xe4, 0xdd, 0xbd,
  0xa6, 0x33, 0x48, 0xbd, 0x95, 0x43, 0xc7, 0x3d, 0x14, 0x20, 0xa1, 0xbe,
  0x6e, 0x9a, 0xd2, 0xbe, 0xf3, 0xe5, 0x3a, 0x3e, 0x08, 0xcb, 0x4b, 0x3e,
  0xa3, 0x32, 0x21, 0xbe, 0x31, 0x44, 0x5d, 0xbe, 0x50, 0xc5, 0x33, 0x3d,
  0xe0, 0xc6, 0x52, 0x3e, 0xcf, 0x37, 0x13, 0xbe, 0xfe, 0xb4, 0xf8, 0x3d,
  0x51, 0x8e, 0xb7, 0xbd, 0xbb, 0xab, 0xb4, 0xbd, 0xe6, 0x8a, 0x00, 0x3d,
  0x36, 0x74, 0xb0, 0xbe, 0x49, 0x80, 0x5e, 0x3e, 0x1d, 0xec, 0x7c, 0x3d,
  0xbf, 0xc6, 0x1c, 0x3e, 0x86, 0x25, 0x8c, 0x3b, 0x2f, 0x00, 0x13, 0xbf,
  0x21, 0x07, 0x1e, 0xbd, 0xcd, 0x12, 0xcc, 0x3a, 0x15, 0x43, 0xf5, 0x3c,
  0x47, 0x8e, 0x2f, 0x3e, 0x82, 0x61, 0x04, 0xbc, 0x6c, 0x14, 0xdd, 0xbe,
  0x99, 0x49, 0x82, 0xbe, 0x16, 0x2e, 0xe6, 0x3d, 0x99, 0x1b, 0xa8, 0xbd,
  0x78, 0x90, 0x09, 0x3e, 0x5a, 0xab, 0x4b, 0xbe, 0xe1, 0x24, 0xd3, 0xbd,
  0xa5, 0x0e, 0xc9, 0x3c, 0x7d, 0xc7, 0xd2, 0x3d, 0xb9, 0xb9, 0x05, 0x3d,
  0xca, 0x7b, 0x09, 0xbd, 0xcd, 0xeb, 0x34, 0x3e, 0x3f, 0xe2, 0x8e, 0xbe,
  0x86, 0xb6, 0xd8, 0xbe, 0xb1, 0x14, 0x99, 0x3e, 0x0c, 0x33, 0x4e, 0xbe,
  0xb6, 0x5b, 0xbe, 0x3d, 0x48, 0x6a, 0x18, 0x3e, 0xd6, 0x5e, 0x45, 0xbe,
  0x4e, 0x00, 0x61, 0xbe, 0x39, 0x13, 0x78, 0xbe, 0xdb, 0x77, 0x27, 0xbc,
  0xbd, 0xaf, 0x71, 0xbd, 0xe2, 0xda, 0x00, 0xbe, 0x8e, 0x14, 0x83, 0xbe,
  0x10, 0x8c, 0xc0, 0xbe, 0x4f, 0x28, 0x43, 0xbd, 0x6d, 0x2d, 0x1b, 0xbe,
  0xf1, 0xd1, 0x05, 0xbd, 0xec, 0x0c, 0x9c, 0x3e, 0x5e, 0xf5, 0x3a, 0x3e,
  0x25, 0xf2, 0x3a, 0xbe, 0x89, 0xe9, 0x95, 0xbe, 0xee, 0x8f, 0x4c, 0xbe,
  0x8c, 0x91, 0x41, 0x3e, 0x84, 0xda, 0xff, 0xbe, 0x5a, 0x41, 0x76, 0x3e,
  0xc4, 0x41, 0x30, 0xbe, 0x7c, 0xdd, 0x83, 0xbd, 0x0a, 0x2c, 0x00, 0xbf,
  0xa2, 0xf0, 0x47, 0xbe, 0x70, 0x9e, 0xf5, 0xbd, 0xb0, 0xa9, 0x71, 0x3e,
  0x42, 0x66, 0x5c, 0x3e, 0xe1, 0xc0, 0x70, 0xbe, 0x00, 0x41, 0xe6, 0x3e,
  0x92, 0x97, 0xb1, 0xbe, 0x7f, 0x37, 0x03, 0xbe, 0x15, 0x5c, 0x9f, 0x3e,
  0xe6, 0x47, 0x0c, 0x3e, 0xe8, 0x0c, 0xab, 0xbe, 0x66, 0x7e, 0x50, 0xbe,
  0xce, 0xee, 0xec, 0xbe, 0xfe, 0x73, 0x99, 0x3d, 0x3a, 0xc6, 0x07, 0x3f,
  0xfb, 0x9c, 0x09, 0xbe, 0x5f, 0x09, 0xf6, 0xbd, 0x11, 0x61, 0xeb, 0x3d,
  0xc5, 0x22, 0x21, 0xbe, 0x59, 0x6c, 0xe9, 0xbe, 0xa5, 0xc4, 0x0c, 0x3e,
  0x2d, 0xa6, 0xad, 0x3e, 0x4f, 0xd0, 0x38, 0xbe, 0x2d, 0xcc, 0xaf, 0xbb,
  0x9f, 0xd5, 0x4a, 0x3d, 0x04, 0x83, 0xaa, 0xbd, 0xf6, 0x63, 0xf9, 0x3e,
  0x30, 0x23, 0x2a, 0x3d, 0x56, 0xa2, 0x26, 0xbd, 0x3f, 0x9b, 0x63, 0x3e,
  0x7d, 0x68, 0xe5, 0xbd, 0x98, 0xb1, 0xff, 0xbd, 0x42, 0x48, 0xf7, 0x3d,
  0x7d, 0x26, 0xde, 0x3d, 0x60, 0x95, 0xa9, 0xbe, 0x61, 0x42, 0x08, 0xbe,
  0xad, 0xf8, 0x24, 0x3e, 0xc9, 0x73, 0x8f, 0xbe, 0x62, 0x94, 0x8b, 0x3d,
  0xc4, 0x2c, 0x1b, 0x3c, 0x56, 0xf4, 0x6e, 0x3e, 0x12, 0x2d, 0xcb, 0xbc,
  0xed, 0xca, 0xb1, 0xbe, 0x34, 0x0c, 0x63, 0xbe, 0x68, 0x56, 0x37, 0xbe,
  0xc0, 0xee, 0x9b, 0x3e, 0x3b, 0xcf, 0x81, 0x3c, 0x00, 0x51, 0x54, 0x3e,
  0xf4, 0x2e, 0xf5, 0x3e, 0xf5, 0x0f, 0x41, 0xbe, 0x13, 0xb8, 0x92, 0x3e,
  0xa8, 0x2a, 0x10, 0x3e, 0x86, 0x0c, 0x0d, 0xbe, 0xaa, 0xed, 0x0a, 0x3e,
  0x3e, 0x40, 0x92, 0xbe, 0x05, 0xd2, 0x68, 0x3d, 0x95, 0xcd, 0x8d, 0x3e,
  0x87, 0x91, 0xbf, 0xbe, 0x48, 0xaf, 0x25, 0xbe, 0xb4, 0xe1, 0xaa, 0x3c,
  0x12, 0xdc, 0xa4, 0x3c, 0x5c, 0x10, 0x92, 0x3d, 0xa4, 0x39, 0xa4, 0x3e,
  0x13, 0x61, 0x99, 0xbe, 0x21, 0xad, 0x93, 0x3e, 0xf1, 0x9b, 0x36, 0xbe,
  0x43, 0xec, 0x17, 0xbe, 0x02, 0x67, 0x86, 0xbd, 0x95, 0x71, 0xcd, 0x3d,
  0xe4, 0x39, 0x11, 0x3f, 0x6f, 0x8b, 0x2b, 0xbe, 0xdc, 0x14, 0xcb, 0x3e,
  0xa3, 0x97, 0xb4, 0x3e, 0xd4, 0x2d, 0x2e, 0x3e, 0x2b, 0xa8, 0x6f, 0xbe,
  0xad, 0xf7, 0x02, 0x3e, 0xad, 0x3b, 0xcd, 0xbe, 0x1a, 0x48, 0x33, 0x3e,
  0x96, 0x7a, 0x75, 0xbe, 0x78, 0x92, 0x4e, 0xbd, 0x97, 0x41, 0xd9, 0x3e,
  0x05, 0x8c, 0xdc, 0xbe, 0x87, 0x9c, 0x4b, 0xbf, 0x92, 0x27, 0x74, 0xbe,
  0x5a, 0x21, 0x8e, 0xbe, 0x49, 0x9d, 0x20, 0xbe, 0x69, 0x32, 0xde, 0x3e,
  0xd9, 0x16, 0x3d, 0xbf, 0xe4, 0xee, 0xf3, 0x3e, 0x5c, 0x0c, 0xab, 0x3e,
  0xdb, 0xf2, 0xaa, 0xbd, 0xb0, 0x2d, 0x8a, 0x3e, 0xab, 0x23, 0xcc, 0xbd,
  0x4a, 0xaa, 0x25, 0x3e, 0x1a, 0xc2, 0x13, 0xbe, 0xa7, 0x62, 0x9c, 0x3e,
  0xd7, 0x73, 0xa6, 0x3e, 0x5c, 0x86, 0x81, 0x3e, 0x45, 0x0c, 0x10, 0xbe,
  0xa6, 0xa5, 0x1a, 0xbd, 0x0e, 0xda, 0xac, 0xbd, 0xeb, 0xed, 0xea, 0x3d,
  0x99, 0x92, 0x2f, 0xbb, 0x87, 0x51, 0xee, 0xbc, 0x58, 0xb5, 0x4b, 0x3b,
  0xeb, 0x28, 0xb0, 0xbe, 0x64, 0x55, 0x0c, 0xbd, 0xb8, 0x35, 0xeb, 0xbd,
  0xad, 0x50, 0x63, 0x3d, 0x72, 0x6b, 0x9f, 0xbd, 0xe9, 0x23, 0xcb, 0x3b,
  0xa1, 0x43, 0x02, 0xbe, 0x67, 0x1c, 0xe9, 0x3d, 0x46, 0x88, 0x70, 0x3d,
  0x76, 0xf5, 0x97, 0x3d, 0x0b, 0x40, 0x72, 0xbe, 0xf2, 0x99, 0x2a, 0xbe,
  0x17, 0x65, 0x28, 0xbf, 0xfa, 0x28, 0x26, 0xbd, 0x16, 0x33, 0x09, 0xbe,
  0x99, 0xfe, 0x67, 0xbc, 0x49, 0x5b, 0x34, 0x3e, 0x30, 0x0d, 0x1e, 0xbf,
  0xac, 0x94, 0x88, 0xbd, 0xdb, 0x9f, 0x8a, 0x3d, 0xb3, 0x92, 0xc8, 0xbd,
  0x74, 0xd0, 0x9c, 0xbe, 0xf6, 0x44, 0x2b, 0x3e, 0x2b, 0x82, 0xe5, 0xbd,
  0xe6, 0x9b, 0x8e, 0xbe, 0x28, 0x2e, 0xf0, 0x3d, 0x9e, 0xb3, 0x3c, 0xbe,
  0xde, 0x70, 0x4f, 0xbe, 0xfa, 0xab, 0x27, 0xbe, 0xd6, 0xaa, 0x42, 0x3e,
  0xbd, 0x2f, 0x50, 0xbd, 0xa5, 0xe4, 0x47, 0xbe, 0x90, 0x1b, 0xad, 0x3e,
  0xa0, 0xb3, 0x81, 0xbe, 0x96, 0xd8, 0x10, 0x3e, 0xcd, 0x90, 0x6a, 0xbd,
  0x93, 0x6e, 0xcd, 0xbe, 0x7a, 0x40, 0x84, 0xbb, 0x14, 0xab, 0x16, 0xbe,
  0xcb, 0xbb, 0x51, 0xbe, 0xf4, 0xd6, 0xc4, 0xbc, 0x30, 0x49, 0x52, 0xbe,
  0xe9, 0x8d, 0x98, 0xbe, 0xd4, 0x6f, 0xd5, 0x3c, 0x8a, 0xba, 0x09, 0xbe,
  0x5d, 0x7e, 0x72, 0x3e, 0x03, 0xcd, 0x36, 0xbd, 0xd0, 0xf5, 0xa9, 0x3d,
  0xe7, 0xe9, 0xa5, 0x3b, 0x42, 0xbe, 0xca, 0x3d, 0x55, 0xff, 0x74, 0xbe,
  0x25, 0xd5, 0x77, 0x3e, 0xe9, 0x74, 0x24, 0xbe, 0xa8, 0x43, 0x81, 0x3e,
  0x28, 0x89, 0x84, 0x3d, 0xe1, 0xa4, 0x43, 0xbe, 0xec, 0xfc, 0x48, 0xbd,
  0xaa, 0x36, 0x6d, 0xbe, 0x6c, 0x42, 0xd0, 0xbd, 0xa2, 0x5d, 0x04, 0xbd,
  0x6d, 0xac, 0x82, 0xbe, 0x5e, 0x99, 0x7f, 0x3e, 0x70, 0x0a, 0xcb, 0xbd,
  0x80, 0xd1, 0x93, 0x3e, 0xa2, 0x2e, 0x0a, 0x3e, 0x0a, 0x5b, 0xca, 0xbd,
  0x28, 0x17, 0xf7, 0x3c, 0x63, 0x31, 0x15, 0x3d, 0xf7, 0xc4, 0xc2, 0xbd,
  0xac, 0xed, 0xc3, 0x3d, 0xf1, 0xd9, 0x32, 0x3d, 0x6f, 0x28, 0x01, 0xbf,
  0x2f, 0xcc, 0x1a, 0x3e, 0xda, 0xbf, 0x4d, 0x3e, 0xb8, 0xb6, 0x2c, 0xbe,
  0x5d, 0x48, 0x7a, 0x3e, 0xd6, 0x31, 0x2d, 0xbd, 0xb7, 0x41, 0xec, 0x3d,
  0x15, 0xe0, 0xb1, 0x3d, 0xd9, 0x79, 0x08, 0xbf, 0x73, 0xa1, 0xd4, 0xbe,
  0xa3, 0x21, 0x9b, 0x3e, 0x8a, 0x48, 0x64, 0xbf, 0x84, 0x29, 0xbb, 0x3d,
  0x6e, 0x66, 0x14, 0x3e, 0xaf, 0xa7, 0xbe, 0xbe, 0x65, 0xf7, 0xaa, 0xbe,
  0xfd, 0x0e, 0x5c, 0xbe, 0x6e, 0x96, 0x29, 0xbf, 0x37, 0xd5, 0x7c, 0xbd,
  0x87, 0x0e, 0xa0, 0xbc, 0x6b, 0x81, 0x2e, 0xbe, 0xd6, 0x05, 0x30, 0xbf,
  0x95, 0xf4, 0x9c, 0xbd, 0xe7, 0x11, 0x3a, 0xbe, 0x97, 0x36, 0xef, 0x3e,
  0xe5, 0x3d, 0xfc, 0x3d, 0x52, 0x97, 0x6c, 0xbe, 0x62, 0xf3, 0x7d, 0x3e,
  0x26, 0xeb, 0xac, 0x3e, 0x93, 0x7e, 0xad, 0xbe, 0x85, 0x45, 0x23, 0x3e,
  0xff, 0xaf, 0xaf, 0x3e, 0x99, 0xbd, 0xc7, 0x3d, 0x72, 0x2e, 0xf3, 0xbe,
  0xc6, 0x71, 0x86, 0x3d, 0xaf, 0x35, 0xac, 0xbd, 0xf8, 0x24, 0x4d, 0x3c,
  0x5e, 0xd1, 0xff, 0x3d, 0x41, 0xd4, 0xc7, 0x3d, 0x60, 0x3a, 0xde, 0x3d,
  0x7e, 0x51, 0x6a, 0xbe, 0xc7, 0xf1, 0xe1, 0xbe, 0x46, 0xd4, 0xb0, 0x3c,
  0x81, 0x67, 0x95, 0x3e, 0xb8, 0x1e, 0xb6, 0x3d, 0xd3, 0x3f, 0x02, 0x3d,
  0x1c, 0xb0, 0x0d, 0x3e, 0x25, 0x99, 0x6a, 0x3e, 0x1c, 0x7d, 0x49, 0x3d,
  0xc2, 0xb0, 0x86, 0xbd, 0xa0, 0x20, 0xba, 0x3e, 0x1f, 0xe8, 0xcd, 0x3e,
  0x72, 0x57, 0x60, 0xbe, 0x89, 0xf1, 0x15, 0x3d, 0x0e, 0x78, 0xe5, 0xbe,
  0x3b, 0xc6, 0xfd, 0x3d, 0x5a, 0x2d, 0xf2, 0xbd, 0x24, 0x4a, 0x19, 0x3e,
  0x93, 0x9c, 0xb4, 0x3d, 0x82, 0x0e, 0x4e, 0xbe, 0x0a, 0xaf, 0x05, 0x3e,
  0x20, 0x31, 0x34, 0x3e, 0xc9, 0xe1, 0x2e, 0xbd, 0x63, 0x09, 0x10, 0x3e,
  0xac, 0xb5, 0x14, 0xbf, 0xb4, 0xc0, 0x14, 0xbe, 0xfb, 0xba, 0xb7, 0x3e,
  0x26, 0xbd, 0x2d, 0xbd, 0xc4, 0x39, 0x07, 0xbe, 0x95, 0x30, 0xfe, 0x3d,
  0xef, 0x81, 0x33, 0xbe, 0x62, 0xd5, 0x93, 0x3b, 0xc4, 0x6c, 0xb7, 0xbc,
  0x07, 0xf2, 0xd9, 0x3d, 0x82, 0xa2, 0x05, 0xbf, 0x25, 0xdd, 0x09, 0x3e,
  0x36, 0xd8, 0xb0, 0xbe, 0x51, 0x17, 0x7d, 0xbd, 0x4e, 0x62, 0xde, 0x3c,
  0x30, 0x02, 0xd9, 0xbe, 0xf4, 0x96, 0x66, 0x3d, 0x1a, 0xe5, 0x08, 0x3e,
  0x8d, 0xd0, 0x36, 0xbe, 0x6f, 0x1d, 0x2b, 0xbe, 0xee, 0xba, 0x56, 0xbe,
  0xa8, 0x9b, 0x2e, 0xbe, 0x06, 0x29, 0x8d, 0xbe, 0x7e, 0x2f, 0x03, 0xbf,
  0x8d, 0x1c, 0x60, 0xbf, 0xb4, 0x47, 0xe9, 0xbd, 0x9d, 0x2b, 0x64, 0x3d,
  0xff, 0x3e, 0xff, 0xbe, 0x4f, 0x02, 0x8f, 0xbe, 0xcd, 0x44, 0x84, 0xbd,
  0xd7, 0x29, 0xd2, 0xbe, 0x00, 0x92, 0xde, 0x3c, 0x58, 0x66, 0x1a, 0xbc,
  0xd0, 0xcf, 0x07, 0xbf, 0xf3, 0xd1, 0x3a, 0xbe, 0xfd, 0x6d, 0x5d, 0x3e,
  0x16, 0x7e, 0xbf, 0xbe, 0x3b, 0x1b, 0x62, 0x3d, 0x23, 0x85, 0xc3, 0xbe,
  0x1d, 0xeb, 0x87, 0xbe, 0x5a, 0x0a, 0xd7, 0x3e, 0x32, 0x4a, 0x7d, 0x3d,
  0xc3, 0x5a, 0x06, 0x3e, 0xb4, 0x84, 0x4f, 0x3e, 0x11, 0x29, 0x6f, 0xbd,
  0x58, 0xd4, 0xe3, 0x3e, 0x17, 0x3d, 0x52, 0x3d, 0x51, 0xf4, 0xbc, 0x3e,
  0x3b, 0xf5, 0x73, 0xbe, 0x10, 0x42, 0xce, 0xbb, 0xfb, 0xd9, 0x25, 0xbc,
  0x2f, 0xef, 0x46, 0xbd, 0xf1, 0xdc, 0x96, 0x3d, 0x72, 0x53, 0xa7, 0x3d,
  0xdb, 0xfc, 0x96, 0x3e, 0x08, 0x68, 0x24, 0xbe, 0x06, 0x5c, 0x52, 0x3e,
  0x9c, 0x8d, 0x83, 0x3d, 0x4f, 0x5d, 0xe7, 0xbe, 0xe7, 0x0a, 0x86, 0xbe,
  0xce, 0xac, 0xb2, 0xbe, 0x23, 0xb9, 0xa0, 0xbe, 0xe4, 0x20, 0x9f, 0xbe,
  0xd4, 0xfd, 0x68, 0x3e, 0xaa, 0x13, 0xc5, 0x3b, 0x25, 0xca, 0x50, 0xbe,
  0x56, 0x2e, 0x9e, 0x3e, 0xd6, 0xdd, 0xb8, 0x3d, 0x6a, 0x2b, 0xa9, 0xbe,
  0xdb, 0x54, 0x6f, 0x3c, 0xf1, 0x35, 0x3f, 0x3c, 0x09, 0xf2, 0x39, 0x3e,
  0x04, 0x29, 0xce, 0xb8, 0x54, 0x86, 0x24, 0xbe, 0xda, 0x04, 0xa9, 0xbe,
  0xd3, 0x6b, 0x2f, 0xbe, 0x93, 0x5a, 0x01, 0xbe, 0xef, 0x42, 0x16, 0x3d,
  0xea, 0x5f, 0x32, 0x3d, 0x16, 0x07, 0x64, 0x3e, 0x4d, 0xcd, 0x36, 0xbe,
  0x06, 0x5f, 0x21, 0xbd, 0x70, 0x4b, 0x5c, 0xbe, 0xff, 0x49, 0xd0, 0x3d,
  0xc6, 0x92, 0xd2, 0xbe, 0x79, 0x1e, 0x8c, 0xbe, 0xb6, 0xda, 0xbd, 0xbe,
  0x6d, 0xda, 0x41, 0x3e, 0x4c, 0x3a, 0xd6, 0xbd, 0xed, 0xf9, 0x6f, 0xbe,
  0x88, 0x7a, 0x2b, 0x3e, 0x24, 0x6e, 0x41, 0x3e, 0x43, 0xad, 0x05, 0xbf,
  0xc8, 0xfb, 0x81, 0xbe, 0xcf, 0xc8, 0x20, 0x3e, 0x3f, 0x4d, 0xbd, 0x3d,
  0x5d, 0xd7, 0xbd, 0xbb, 0x35, 0x1c, 0x01, 0x3e, 0x99, 0xfc, 0x76, 0xbc,
  0x27, 0xce, 0x77, 0x3e, 0xea, 0x97, 0x08, 0x3e, 0x5a, 0x85, 0xbd, 0xbc,
  0x65, 0xfb, 0x7d, 0xbd, 0xad, 0x9d, 0x8c, 0xbd, 0xa6, 0x2e, 0x3a, 0xbe,
  0x58, 0xc0, 0x90, 0x3e, 0x1d, 0xe4, 0xdb, 0x3d, 0x80, 0x2e, 0xb1, 0xbd,
  0x6b, 0xba, 0xbf, 0xbd, 0x66, 0x41, 0x8e, 0xbd, 0x1a, 0xdb, 0xc8, 0xbe,
  0x77, 0x1e, 0x1b, 0x3e, 0x27, 0x6d, 0xcd, 0x3e, 0xb9, 0xe2, 0x4d, 0xbe,
  0xf7, 0x79, 0x06, 0x3e, 0x5a, 0x93, 0xa1, 0x3c, 0xca, 0x3a, 0x43, 0xbe,
  0xb5, 0xee, 0x6d, 0x3d, 0x39, 0x66, 0xc4, 0x3e, 0x67, 0x31, 0x0a, 0xbe,
  0x85, 0xe3, 0x14, 0x3e, 0x38, 0x1d, 0x6c, 0x3e, 0x4d, 0x03, 0x96, 0x3d,
  0x27, 0x6c, 0xeb, 0x3e, 0x31, 0xed, 0x41, 0x3d, 0xfa, 0x0f, 0x60, 0x3c,
  0x19, 0xa2, 0x3c, 0xbe, 0x97, 0xee, 0x5e, 0x3e, 0x6b, 0xc8, 0x3a, 0xbd,
  0xa4, 0xa6, 0x22, 0x3e, 0x80, 0xbc, 0xce, 0xbc, 0xc7, 0xe1, 0x6a, 0xbe,
  0x4a, 0x2d, 0x8a, 0xbe, 0x71, 0x68, 0x9c, 0xbd, 0xd4, 0xc2, 0x0d, 0xbf,
  0xa9, 0xea, 0x8b, 0x3c, 0xbe, 0x1b, 0x03, 0xbf, 0x70, 0xa4, 0xdf, 0xbe,
  0xd4, 0x12, 0x68, 0xbe, 0xdc, 0xa3, 0x29, 0xbf, 0xc4, 0x45, 0x6c, 0x3b,
  0xd0, 0xc1, 0xa4, 0xbd, 0x20, 0x8c, 0x3e, 0xbc, 0xf6, 0xca, 0xee, 0xbd,
  0x08, 0xf1, 0xa6, 0xbd, 0xbd, 0xf4, 0x04, 0xbf, 0x10, 0x99, 0x64, 0x3e,
  0xf3, 0xce, 0x96, 0x3d, 0xb0, 0x64, 0xcb, 0x3c, 0x1b, 0x29, 0x0d, 0x3e,
  0xf2, 0x5f, 0x1e, 0xbe, 0x6d, 0x66, 0x84, 0xbe, 0x02, 0x83, 0x5e, 0x3e,
  0xa1, 0x45, 0x2c, 0x3e, 0xf0, 0x98, 0x8b, 0x3d, 0x7b, 0xe9, 0xed, 0xbd,
  0xa1, 0xf0, 0xdf, 0xbe, 0x10, 0xa4, 0x1d, 0x3e, 0x61, 0xfe, 0xb0, 0xbe,
  0x27, 0x31, 0x95, 0x3e, 0x86, 0x92, 0xfd, 0xbe, 0x4a, 0xcc, 0x14, 0xbf,
  0x98, 0x4e, 0xa3, 0x3e, 0x38, 0x5c, 0xcb, 0xbe, 0x39, 0x80, 0x14, 0x3e,
  0x91, 0xa1, 0x53, 0xbd, 0x45, 0x79, 0x77, 0x3d, 0x76, 0x2b, 0x54, 0xbf,
  0x34, 0x9a, 0xcb, 0xbe, 0x29, 0x6d, 0x94, 0xbd, 0xfa, 0x27, 0x2d, 0x3e,
  0x8d, 0x73, 0x6d, 0x3e, 0xc8, 0x66, 0x54, 0x3e, 0xa8, 0x57, 0x8f, 0x3d,
  0x6a, 0x50, 0x8a, 0xbe, 0xcc, 0x8e, 0x4b, 0xbe, 0xec, 0x9c, 0x83, 0xbc,
  0xe9, 0x18, 0x92, 0xbd, 0x54, 0xbb, 0xa8, 0x3c, 0x05, 0xca, 0x87, 0x3d,
  0x28, 0x4c, 0xef, 0xbe, 0x76, 0xc3, 0x59, 0x3e, 0x08, 0x09, 0x7e, 0xbe,
  0x69, 0x71, 0x3e, 0x3e, 0x3b, 0x07, 0x62, 0x3e, 0x68, 0xbf, 0xd8, 0x3d,
  0x3c, 0x18, 0xca, 0x3e, 0x17, 0x91, 0x45, 0x3d, 0xeb, 0xf6, 0xf3, 0x3d,
  0x30, 0xa9, 0xfb, 0x3d, 0x1a, 0xf3, 0xfd, 0xbd, 0x19, 0xc3, 0x5d, 0xbe,
  0xfd, 0xab, 0x25, 0xbf, 0x41, 0xe9, 0xfe, 0xbd, 0x17, 0xa1, 0xce, 0x3e,
  0xca, 0x8a, 0x9e, 0x3e, 0x4d, 0x4b, 0x55, 0x3e, 0x1d, 0x03, 0xbc, 0xbd,
  0x6a, 0xd4, 0x43, 0xbf, 0x13, 0xaf, 0xa5, 0x3e, 0x9c, 0xd9, 0xd4, 0xbe,
  0x2e, 0x82, 0xa4, 0xbe, 0x6c, 0xaf, 0x01, 0x3d, 0x08, 0x62, 0x9e, 0xbe,
  0xd0, 0x33, 0x96, 0xbe, 0xd5, 0xba, 0x99, 0x3e, 0x21, 0x20, 0x18, 0xbf,
  0x33, 0x33, 0x1d, 0xbc, 0x18, 0xcd, 0x11, 0x3e, 0xbb, 0x34, 0x87, 0x3e,
  0xf6, 0x1c, 0x1f, 0x3f, 0x48, 0x70, 0x34, 0x3d, 0xae, 0x0b, 0xa9, 0xbd,
  0x37, 0x3a, 0xb1, 0x3e, 0x48, 0x7e, 0x40, 0xbe, 0x6f, 0x78, 0x29, 0xbe,
  0xb2, 0x48, 0x0e, 0xbf, 0x03, 0xeb, 0xcc, 0x3d, 0x7f, 0xc5, 0xfe, 0x3d,
  0x05, 0xca, 0x17, 0xbd, 0xa2, 0x7a, 0x4c, 0xbe, 0x28, 0x26, 0x2f, 0xbe,
  0x03, 0x93, 0x2a, 0xbe, 0x2f, 0xdc, 0x65, 0x3e, 0xd1, 0xf9, 0x9d, 0xbd,
  0xd4, 0xe3, 0x93, 0xbe, 0x9e, 0xd8, 0x12, 0xbe, 0x34, 0xee, 0xaf, 0xbe,
  0x5e, 0x39, 0xa0, 0xbe, 0xa6, 0xc8, 0x7a, 0x3e, 0x03, 0xcc, 0x99, 0x3e,
  0x32, 0x47, 0x2f, 0xbc, 0x5a, 0xff, 0xff, 0xff, 0x04, 0x00, 0x00, 0x00,
  0x28, 0x00, 0x00, 0x00, 0xda, 0x40, 0xce, 0x3d, 0xb6, 0x38, 0xb5, 0x3c,
  0xa1, 0x64, 0x9c, 0x3d, 0x8c, 0xcb, 0x27, 0x3d, 0xb7, 0xcf, 0xc8, 0xbd,
  0x0a, 0x06, 0x3d, 0xbe, 0x02, 0x56, 0x09, 0x3e, 0xba, 0x91, 0xa2, 0x3d,
  0x16, 0xfa, 0x4d, 0xbe, 0x5c, 0x29, 0x95, 0xbd, 0x4c, 0xfa, 0xff, 0xff,
  0x0f, 0x00, 0x00, 0x00, 0x54, 0x4f, 0x43, 0x4f, 0x20, 0x43, 0x6f, 0x6e,
  0x76, 0x65, 0x72, 0x74, 0x65, 0x64, 0x2e, 0x00, 0x01, 0x00, 0x00, 0x00,
  0x10, 0x00, 0x00, 0x00, 0x0c, 0x00, 0x14, 0x00, 0x04, 0x00, 0x08, 0x00,
  0x0c, 0x00, 0x10, 0x00, 0x0c, 0x00, 0x00, 0x00, 0xc0, 0x01, 0x00, 0x00,
  0xb4, 0x01, 0x00, 0x00, 0xa8, 0x01, 0x00, 0x00, 0x04, 0x00, 0x00, 0x00,
  0x05, 0x00, 0x00, 0x00, 0x48, 0x01, 0x00, 0x00, 0xe8, 0x00, 0x00, 0x00,
  0x88, 0x00, 0x00, 0x00, 0x40, 0x00, 0x00, 0x00, 0x04, 0x00, 0x00, 0x00,
  0xda, 0xfe, 0xff, 0xff, 0x00, 0x00, 0x00, 0x09, 0x04, 0x00, 0x00, 0x00,
  0x24, 0x00, 0x00, 0x00, 0x18, 0x00, 0x00, 0x00, 0x0c, 0x00, 0x00, 0x00,
  0x00, 0x00, 0x06, 0x00, 0x08, 0x00, 0x04, 0x00, 0x06, 0x00, 0x00, 0x00,
  0x00, 0x00, 0x80, 0x3f, 0x01, 0x00, 0x00, 0x00, 0x00, 0x00, 0x00, 0x00,
  0x01, 0x00, 0x00, 0x00, 0x09, 0x00, 0x00, 0x00, 0xca, 0xff, 0xff, 0xff,
  0x00, 0x00, 0x00, 0x08, 0x03, 0x00, 0x00, 0x00, 0x18, 0x00, 0x00, 0x00,
  0x0c, 0x00, 0x00, 0x00, 0x04, 0x00, 0x00, 0x00, 0xf4, 0xfa, 0xff, 0xff,
  0x01, 0x00, 0x00, 0x00, 0x09, 0x00, 0x00, 0x00, 0x03, 0x00, 0x00, 0x00,
  0x08, 0x00, 0x00, 0x00, 0x0a, 0x00, 0x00, 0x00, 0x0b, 0x00, 0x00, 0x00,
  0x00, 0x00, 0x0e, 0x00, 0x18, 0x00, 0x08, 0x00, 0x0c, 0x00, 0x10, 0x00,
  0x07, 0x00, 0x14, 0x00, 0x0e, 0x00, 0x00, 0x00, 0x00, 0x00, 0x00, 0x01,
  0x01, 0x00, 0x00, 0x00, 0x30, 0x00, 0x00, 0x00, 0x24, 0x00, 0x00, 0x00,
  0x10, 0x00, 0x00, 0x00, 0x0c, 0x00, 0x10, 0x00, 0x06, 0x00, 0x08, 0x00,
  0x0c, 0x00, 0x07, 0x00, 0x0c, 0x00, 0x00, 0x00, 0x00, 0x00, 0x01, 0x01,
  0x01, 0x00, 0x00, 0x00, 0x01, 0x00, 0x00, 0x00, 0x01, 0x00, 0x00, 0x00,
  0x08, 0x00, 0x00, 0x00, 0x03, 0x00, 0x00, 0x00, 0x02, 0x00, 0x00, 0x00,
  0x06, 0x00, 0x00, 0x00, 0x07, 0x00, 0x00, 0x00, 0x00, 0x00, 0x0e, 0x00,
  0x16, 0x00, 0x00, 0x00, 0x08, 0x00, 0x0c, 0x00, 0x07, 0x00, 0x10, 0x00,
  0x0e, 0x00, 0x00, 0x00, 0x00, 0x00, 0x00, 0x05, 0x3c, 0x00, 0x00, 0x00,
  0x30, 0x00, 0x00, 0x00, 0x14, 0x00, 0x00, 0x00, 0x00, 0x00, 0x0e, 0x00,
  0x18, 0x00, 0x07, 0x00, 0x08, 0x00, 0x0c, 0x00, 0x10, 0x00, 0x14, 0x00,
  0x0e, 0x00, 0x00, 0x00, 0x00, 0x00, 0x00, 0x01, 0x02, 0x00, 0x00, 0x00,
  0x02, 0x00, 0x00, 0x00, 0x02, 0x00, 0x00, 0x00, 0x02, 0x00, 0x00, 0x00,
  0x01, 0x00, 0x00, 0x00, 0x02, 0x00, 0x00, 0x00, 0x01, 0x00, 0x00, 0x00,
  0x05, 0x00, 0x00, 0x00, 0x00, 0x00, 0x0e, 0x00, 0x1a, 0x00, 0x08, 0x00,
  0x0c, 0x00, 0x10, 0x00, 0x07, 0x00, 0x14, 0x00, 0x0e, 0x00, 0x00, 0x00,
  0x00, 0x00, 0x00, 0x02, 0x02, 0x00, 0x00, 0x00, 0x38, 0x00, 0x00, 0x00,
  0x2c, 0x00, 0x00, 0x00, 0x14, 0x00, 0x00, 0x00, 0x00, 0x00, 0x0e, 0x00,
  0x14, 0x00, 0x06, 0x00, 0x08, 0x00, 0x0c, 0x00, 0x10, 0x00, 0x07, 0x00,
  0x0e, 0x00, 0x00, 0x00, 0x00, 0x00, 0x01, 0x01, 0x01, 0x00, 0x00, 0x00,
  0x01, 0x00, 0x00, 0x00, 0x04, 0x00, 0x00, 0x00, 0x01, 0x00, 0x00, 0x00,
  0x05, 0x00, 0x00, 0x00, 0x03, 0x00, 0x00, 0x00, 0x01, 0x00, 0x00, 0x00,
  0x03, 0x00, 0x00, 0x00, 0x04, 0x00, 0x00, 0x00, 0x01, 0x00, 0x00, 0x00,
  0x00, 0x00, 0x00, 0x00, 0x01, 0x00, 0x00, 0x00, 0x01, 0x00, 0x00, 0x00,
  0x0c, 0x00, 0x00, 0x00, 0xac, 0x03, 0x00, 0x00, 0x38, 0x03, 0x00, 0x00,
  0xdc, 0x02, 0x00, 0x00, 0x80, 0x02, 0x00, 0x00, 0x38, 0x02, 0x00, 0x00,
  0xec, 0x01, 0x00, 0x00, 0x8c, 0x01, 0x00, 0x00, 0x44, 0x01, 0x00, 0x00,
  0xf4, 0x00, 0x00, 0x00, 0xac, 0x00, 0x00, 0x00, 0x4c, 0x00, 0x00, 0x00,
  0x04, 0x00, 0x00, 0x00, 0x92, 0xfc, 0xff, 0xff, 0x38, 0x00, 0x00, 0x00,
  0x01, 0x00, 0x00, 0x00, 0x0c, 0x00, 0x00, 0x00, 0x04, 0x00, 0x00, 0x00,
  0x84, 0xfc, 0xff, 0xff, 0x1c, 0x00, 0x00, 0x00, 0x73, 0x65, 0x71, 0x75,
  0x65, 0x6e, 0x74, 0x69, 0x61, 0x6c, 0x2f, 0x64, 0x65, 0x6e, 0x73, 0x65,
  0x2f, 0x4d, 0x61, 0x74, 0x4d, 0x75, 0x6c, 0x5f, 0x62, 0x69, 0x61, 0x73,
  0x00, 0x00, 0x00, 0x00, 0x01, 0x00, 0x00, 0x00, 0x0a, 0x00, 0x00, 0x00,
  0xd6, 0xfc, 0xff, 0xff, 0x4c, 0x00, 0x00, 0x00, 0x02, 0x00, 0x00, 0x00,
  0x0c, 0x00, 0x00, 0x00, 0x04, 0x00, 0x00, 0x00, 0xc8, 0xfc, 0xff, 0xff,
  0x30, 0x00, 0x00, 0x00, 0x73, 0x65, 0x71, 0x75, 0x65, 0x6e, 0x74, 0x69,
  0x61, 0x6c, 0x2f, 0x64, 0x65, 0x6e, 0x73, 0x65, 0x2f, 0x4d, 0x61, 0x74,
  0x4d, 0x75, 0x6c, 0x2f, 0x52, 0x65, 0x61, 0x64, 0x56, 0x61, 0x72, 0x69,
  0x61, 0x62, 0x6c, 0x65, 0x4f, 0x70, 0x2f, 0x74, 0x72, 0x61, 0x6e, 0x73,
  0x70, 0x6f, 0x73, 0x65, 0x00, 0x00, 0x00, 0x00, 0x02, 0x00, 0x00, 0x00,
  0x0a, 0x00, 0x00, 0x00, 0x60, 0x00, 0x00, 0x00, 0x32, 0xfd, 0xff, 0xff,
  0x34, 0x00, 0x00, 0x00, 0x09, 0x00, 0x00, 0x00, 0x0c, 0x00, 0x00, 0x00,
  0x04, 0x00, 0x00, 0x00, 0x24, 0xfd, 0xff, 0xff, 0x18, 0x00, 0x00, 0x00,
  0x73, 0x65, 0x71, 0x75, 0x65, 0x6e, 0x74, 0x69, 0x61, 0x6c, 0x2f, 0x64,
  0x65, 0x6e, 0x73, 0x65, 0x2f, 0x42, 0x69, 0x61, 0x73, 0x41, 0x64, 0x64,
  0x00, 0x00, 0x00, 0x00, 0x02, 0x00, 0x00, 0x00, 0x01, 0x00, 0x00, 0x00,
  0x0a, 0x00, 0x00, 0x00, 0x76, 0xfd, 0xff, 0xff, 0x34, 0x00, 0x00, 0x00,
  0x04, 0x00, 0x00, 0x00, 0x0c, 0x00, 0x00, 0x00, 0x04, 0x00, 0x00, 0x00,
  0x68, 0xfd, 0xff, 0xff, 0x18, 0x00, 0x00, 0x00, 0x73, 0x65, 0x71, 0x75,
  0x65, 0x6e, 0x74, 0x69, 0x61, 0x6c, 0x2f, 0x63, 0x6f, 0x6e, 0x76, 0x32,
  0x64, 0x5f, 0x31, 0x2f, 0x52, 0x65, 0x6c, 0x75, 0x00, 0x00, 0x00, 0x00,
  0x04, 0x00, 0x00, 0x00, 0x01, 0x00, 0x00, 0x00, 0x04, 0x00, 0x00, 0x00,
  0x04, 0x00, 0x00, 0x00, 0x06, 0x00, 0x00, 0x00, 0xc2, 0xfd, 0xff, 0xff,
  0x38, 0x00, 0x00, 0x00, 0x03, 0x00, 0x00, 0x00, 0x0c, 0x00, 0x00, 0x00,
  0x04, 0x00, 0x00, 0x00, 0xb4, 0xfd, 0xff, 0xff, 0x1f, 0x00, 0x00, 0x00,
  0x73, 0x65, 0x71, 0x75, 0x65, 0x6e, 0x74, 0x69, 0x61, 0x6c, 0x2f, 0x63,
  0x6f, 0x6e, 0x76, 0x32, 0x64, 0x5f, 0x31, 0x2f, 0x43, 0x6f, 0x6e, 0x76,
  0x32, 0x44, 0x5f, 0x62, 0x69, 0x61, 0x73, 0x00, 0x01, 0x00, 0x00, 0x00,
  0x06, 0x00, 0x00, 0x00, 0x06, 0xfe, 0xff, 0xff, 0x44, 0x00, 0x00, 0x00,
  0x07, 0x00, 0x00, 0x00, 0x0c, 0x00, 0x00, 0x00, 0x04, 0x00, 0x00, 0x00,
  0xf8, 0xfd, 0xff, 0xff, 0x29, 0x00, 0x00, 0x00, 0x73, 0x65, 0x71, 0x75,
  0x65, 0x6e, 0x74, 0x69, 0x61, 0x6c, 0x2f, 0x63, 0x6f, 0x6e, 0x76, 0x32,
  0x64, 0x5f, 0x31, 0x2f, 0x43, 0x6f, 0x6e, 0x76, 0x32, 0x44, 0x2f, 0x52,
  0x65, 0x61, 0x64, 0x56, 0x61, 0x72, 0x69, 0x61, 0x62, 0x6c, 0x65, 0x4f,
  0x70, 0x00, 0x00, 0x00, 0x04, 0x00, 0x00, 0x00, 0x06, 0x00, 0x00, 0x00,
  0x03, 0x00, 0x00, 0x00, 0x03, 0x00, 0x00, 0x00, 0x04, 0x00, 0x00, 0x00,
  0x62, 0xfe, 0xff, 0xff, 0x30, 0x00, 0x00, 0x00, 0x0a, 0x00, 0x00, 0x00,
  0x0c, 0x00, 0x00, 0x00, 0x04, 0x00, 0x00, 0x00, 0x54, 0xfe, 0xff, 0xff,
  0x16, 0x00, 0x00, 0x00, 0x73, 0x65, 0x71, 0x75, 0x65, 0x6e, 0x74, 0x69,
  0x61, 0x6c, 0x2f, 0x63, 0x6f, 0x6e, 0x76, 0x32, 0x64, 0x2f, 0x52, 0x65,
  0x6c, 0x75, 0x00, 0x00, 0x04, 0x00, 0x00, 0x00, 0x01, 0x00, 0x00, 0x00,
  0x0c, 0x00, 0x00, 0x00, 0x0c, 0x00, 0x00, 0x00, 0x04, 0x00, 0x00, 0x00,
  0xaa, 0xfe, 0xff, 0xff, 0x38, 0x00, 0x00, 0x00, 0x0b, 0x00, 0x00, 0x00,
  0x0c, 0x00, 0x00, 0x00, 0x04, 0x00, 0x00, 0x00, 0x9c, 0xfe, 0xff, 0xff,
  0x1d, 0x00, 0x00, 0x00, 0x73, 0x65, 0x71, 0x75, 0x65, 0x6e, 0x74, 0x69,
  0x61, 0x6c, 0x2f, 0x63, 0x6f, 0x6e, 0x76, 0x32, 0x64, 0x2f, 0x43, 0x6f,
  0x6e, 0x76, 0x32, 0x44, 0x5f, 0x62, 0x69, 0x61, 0x73, 0x00, 0x00, 0x00,
  0x01, 0x00, 0x00, 0x00, 0x04, 0x00, 0x00, 0x00, 0xee, 0xfe, 0xff, 0xff,
  0x40, 0x00, 0x00, 0x00, 0x08, 0x00, 0x00, 0x00, 0x0c, 0x00, 0x00, 0x00,
  0x04, 0x00, 0x00, 0x00, 0xe0, 0xfe, 0xff, 0xff, 0x27, 0x00, 0x00, 0x00,
  0x73, 0x65, 0x71, 0x75, 0x65, 0x6e, 0x74, 0x69, 0x61, 0x6c, 0x2f, 0x63,
  0x6f, 0x6e, 0x76, 0x32, 0x64, 0x2f, 0x43, 0x6f, 0x6e, 0x76, 0x32, 0x44,
  0x2f, 0x52, 0x65, 0x61, 0x64, 0x56, 0x61, 0x72, 0x69, 0x61, 0x62, 0x6c,
  0x65, 0x4f, 0x70, 0x00, 0x04, 0x00, 0x00, 0x00, 0x01, 0x00, 0x00, 0x00,
  0x03, 0x00, 0x00, 0x00, 0x03, 0x00, 0x00, 0x00, 0x04, 0x00, 0x00, 0x00,
  0x46, 0xff, 0xff, 0xff, 0x40, 0x00, 0x00, 0x00, 0x05, 0x00, 0x00, 0x00,
  0x0c, 0x00, 0x00, 0x00, 0x04, 0x00, 0x00, 0x00, 0x38, 0xff, 0xff, 0xff,
  0x24, 0x00, 0x00, 0x00, 0x73, 0x65, 0x71, 0x75, 0x65, 0x6e, 0x74, 0x69,
  0x61, 0x6c, 0x2f, 0x61, 0x76, 0x65, 0x72, 0x61, 0x67, 0x65, 0x5f, 0x70,
  0x6f, 0x6f, 0x6c, 0x69, 0x6e, 0x67, 0x32, 0x64, 0x2f, 0x41, 0x76, 0x67,
  0x50, 0x6f, 0x6f, 0x6c, 0x00, 0x00, 0x00, 0x00, 0x04, 0x00, 0x00, 0x00,
  0x01, 0x00, 0x00, 0x00, 0x06, 0x00, 0x00, 0x00, 0x06, 0x00, 0x00, 0x00,
  0x04, 0x00, 0x00, 0x00, 0x9e, 0xff, 0xff, 0xff, 0x48, 0x00, 0x00, 0x00,
  0x06, 0x00, 0x00, 0x00, 0x2c, 0x00, 0x00, 0x00, 0x0c, 0x00, 0x00, 0x00,
  0x08, 0x00, 0x0c, 0x00, 0x04, 0x00, 0x08, 0x00, 0x08, 0x00, 0x00, 0x00,
  0x10, 0x00, 0x00, 0x00, 0x04, 0x00, 0x00, 0x00, 0x01, 0x00, 0x00, 0x00,
  0x00, 0x00, 0x7f, 0x43, 0x01, 0x00, 0x00, 0x00, 0x00, 0x00, 0x00, 0x00,
  0x0c, 0x00, 0x00, 0x00, 0x63, 0x6f, 0x6e, 0x76, 0x32, 0x64, 0x5f, 0x69,
  0x6e, 0x70, 0x75, 0x74, 0x00, 0x00, 0x00, 0x00, 0x04, 0x00, 0x00, 0x00,
  0x01, 0x00, 0x00, 0x00, 0x0e, 0x00, 0x00, 0x00, 0x0e, 0x00, 0x00, 0x00,
  0x01, 0x00, 0x00, 0x00, 0x00, 0x00, 0x0e, 0x00, 0x14, 0x00, 0x04, 0x00,
  0x00, 0x00, 0x08, 0x00, 0x0c, 0x00, 0x10, 0x00, 0x0e, 0x00, 0x00, 0x00,
  0x28, 0x00, 0x00, 0x00, 0x0c, 0x00, 0x00, 0x00, 0x10, 0x00, 0x00, 0x00,
  0x08, 0x00, 0x00, 0x00, 0x04, 0x00, 0x04, 0x00, 0x04, 0x00, 0x00, 0x00,
  0x08, 0x00, 0x00, 0x00, 0x49, 0x64, 0x65, 0x6e, 0x74, 0x69, 0x74, 0x79,
  0x00, 0x00, 0x00, 0x00, 0x02, 0x00, 0x00, 0x00, 0x01, 0x00, 0x00, 0x00,
  0x0a, 0x00, 0x00, 0x00, 0x05, 0x00, 0x00, 0x00, 0x54, 0x00, 0x00, 0x00,
  0x3c, 0x00, 0x00, 0x00, 0x28, 0x00, 0x00, 0x00, 0x10, 0x00, 0x00, 0x00,
  0x04, 0x00, 0x00, 0x00, 0xc6, 0xff, 0xff, 0xff, 0x00, 0x00, 0x00, 0x19,
  0xe6, 0xff, 0xff, 0xff, 0x00, 0x00, 0x00, 0x09, 0x03, 0x00, 0x00, 0x00,
  0x00, 0x00, 0x06, 0x00, 0x06, 0x00, 0x05, 0x00, 0x06, 0x00, 0x00, 0x00,
  0x00, 0x04, 0x0a, 0x00, 0x0e, 0x00, 0x07, 0x00, 0x00, 0x00, 0x08, 0x00,
  0x0a, 0x00, 0x00, 0x00, 0x00, 0x00, 0x00, 0x03, 0x02, 0x00, 0x00, 0x00,
  0x00, 0x00, 0x06, 0x00, 0x08, 0x00, 0x07, 0x00, 0x06, 0x00, 0x00, 0x00,
  0x00, 0x00, 0x00, 0x01}
  */
////////////////////////////////////////////////////////////
// MODLE 14X14
//6796
// model nap thanh cong v1
/*
const unsigned char fashion_mnist_model_tflite[] DATA_ALIGN_ATTRIBUTE ={
  0x1c, 0x00, 0x00, 0x00, 0x54, 0x46, 0x4c, 0x33, 0x00, 0x00, 0x12, 0x00,
  0x1c, 0x00, 0x04, 0x00, 0x08, 0x00, 0x0c, 0x00, 0x10, 0x00, 0x14, 0x00,
  0x00, 0x00, 0x18, 0x00, 0x12, 0x00, 0x00, 0x00, 0x03, 0x00, 0x00, 0x00,
  0x64, 0x2a, 0x00, 0x00, 0x4c, 0x08, 0x00, 0x00, 0x34, 0x08, 0x00, 0x00,
  0x3c, 0x00, 0x00, 0x00, 0x04, 0x00, 0x00, 0x00, 0x01, 0x00, 0x00, 0x00,
  0x0c, 0x00, 0x00, 0x00, 0x08, 0x00, 0x0c, 0x00, 0x04, 0x00, 0x08, 0x00,
  0x08, 0x00, 0x00, 0x00, 0x08, 0x00, 0x00, 0x00, 0x28, 0x00, 0x00, 0x00,
  0x13, 0x00, 0x00, 0x00, 0x6d, 0x69, 0x6e, 0x5f, 0x72, 0x75, 0x6e, 0x74,
  0x69, 0x6d, 0x65, 0x5f, 0x76, 0x65, 0x72, 0x73, 0x69, 0x6f, 0x6e, 0x00,
  0x29, 0x00, 0x00, 0x00, 0xec, 0x07, 0x00, 0x00, 0xd8, 0x07, 0x00, 0x00,
  0xbc, 0x07, 0x00, 0x00, 0x98, 0x07, 0x00, 0x00, 0x64, 0x07, 0x00, 0x00,
  0x30, 0x07, 0x00, 0x00, 0x0c, 0x07, 0x00, 0x00, 0xe8, 0x06, 0x00, 0x00,
  0xc4, 0x06, 0x00, 0x00, 0x90, 0x06, 0x00, 0x00, 0x5c, 0x06, 0x00, 0x00,
  0x38, 0x06, 0x00, 0x00, 0x14, 0x06, 0x00, 0x00, 0xc0, 0x03, 0x00, 0x00,
  0xac, 0x03, 0x00, 0x00, 0x78, 0x03, 0x00, 0x00, 0x54, 0x03, 0x00, 0x00,
  0xd0, 0x02, 0x00, 0x00, 0x9c, 0x02, 0x00, 0x00, 0x78, 0x02, 0x00, 0x00,
  0xf4, 0x01, 0x00, 0x00, 0x90, 0x01, 0x00, 0x00, 0x84, 0x01, 0x00, 0x00,
  0x70, 0x01, 0x00, 0x00, 0x5c, 0x01, 0x00, 0x00, 0x48, 0x01, 0x00, 0x00,
  0x34, 0x01, 0x00, 0x00, 0x20, 0x01, 0x00, 0x00, 0x0c, 0x01, 0x00, 0x00,
  0xf8, 0x00, 0x00, 0x00, 0xe4, 0x00, 0x00, 0x00, 0xd0, 0x00, 0x00, 0x00,
  0xbc, 0x00, 0x00, 0x00, 0xa8, 0x00, 0x00, 0x00, 0x94, 0x00, 0x00, 0x00,
  0x80, 0x00, 0x00, 0x00, 0x6c, 0x00, 0x00, 0x00, 0x58, 0x00, 0x00, 0x00,
  0x44, 0x00, 0x00, 0x00, 0x30, 0x00, 0x00, 0x00, 0x04, 0x00, 0x00, 0x00,
  0xfe, 0xf7, 0xff, 0xff, 0x04, 0x00, 0x00, 0x00, 0x10, 0x00, 0x00, 0x00,
  0x31, 0x2e, 0x35, 0x2e, 0x30, 0x00, 0x00, 0x00, 0x00, 0x00, 0x00, 0x00,
  0x00, 0x00, 0x00, 0x00, 0x00, 0x00, 0x00, 0x00, 0x00, 0x00, 0x00, 0x00,
  0x00, 0x00, 0x00, 0x00, 0x6c, 0xd6, 0xff, 0xff, 0x00, 0x00, 0x00, 0x00,
  0x00, 0x00, 0x00, 0x00, 0x00, 0x00, 0x00, 0x00, 0x7c, 0xd6, 0xff, 0xff,
  0x00, 0x00, 0x00, 0x00, 0x00, 0x00, 0x00, 0x00, 0x00, 0x00, 0x00, 0x00,
  0x8c, 0xd6, 0xff, 0xff, 0x00, 0x00, 0x00, 0x00, 0x00, 0x00, 0x00, 0x00,
  0x00, 0x00, 0x00, 0x00, 0x9c, 0xd6, 0xff, 0xff, 0x00, 0x00, 0x00, 0x00,
  0x00, 0x00, 0x00, 0x00, 0x00, 0x00, 0x00, 0x00, 0xac, 0xd6, 0xff, 0xff,
  0x00, 0x00, 0x00, 0x00, 0x00, 0x00, 0x00, 0x00, 0x00, 0x00, 0x00, 0x00,
  0xbc, 0xd6, 0xff, 0xff, 0x00, 0x00, 0x00, 0x00, 0x00, 0x00, 0x00, 0x00,
  0x00, 0x00, 0x00, 0x00, 0xcc, 0xd6, 0xff, 0xff, 0x00, 0x00, 0x00, 0x00,
  0x00, 0x00, 0x00, 0x00, 0x00, 0x00, 0x00, 0x00, 0xdc, 0xd6, 0xff, 0xff,
  0x00, 0x00, 0x00, 0x00, 0x00, 0x00, 0x00, 0x00, 0x00, 0x00, 0x00, 0x00,
  0xec, 0xd6, 0xff, 0xff, 0x00, 0x00, 0x00, 0x00, 0x00, 0x00, 0x00, 0x00,
  0x00, 0x00, 0x00, 0x00, 0xfc, 0xd6, 0xff, 0xff, 0x00, 0x00, 0x00, 0x00,
  0x00, 0x00, 0x00, 0x00, 0x00, 0x00, 0x00, 0x00, 0x0c, 0xd7, 0xff, 0xff,
  0x00, 0x00, 0x00, 0x00, 0x00, 0x00, 0x00, 0x00, 0x00, 0x00, 0x00, 0x00,
  0x1c, 0xd7, 0xff, 0xff, 0x00, 0x00, 0x00, 0x00, 0x00, 0x00, 0x00, 0x00,
  0x00, 0x00, 0x00, 0x00, 0x2c, 0xd7, 0xff, 0xff, 0x00, 0x00, 0x00, 0x00,
  0x00, 0x00, 0x00, 0x00, 0x00, 0x00, 0x00, 0x00, 0x3c, 0xd7, 0xff, 0xff,
  0x00, 0x00, 0x00, 0x00, 0x00, 0x00, 0x00, 0x00, 0x00, 0x00, 0x00, 0x00,
  0x4c, 0xd7, 0xff, 0xff, 0x00, 0x00, 0x00, 0x00, 0x00, 0x00, 0x00, 0x00,
  0x00, 0x00, 0x00, 0x00, 0x5c, 0xd7, 0xff, 0xff, 0x00, 0x00, 0x00, 0x00,
  0x00, 0x00, 0x00, 0x00, 0x00, 0x00, 0x00, 0x00, 0x6c, 0xd7, 0xff, 0xff,
  0x00, 0x00, 0x00, 0x00, 0x00, 0x00, 0x00, 0x00, 0x00, 0x00, 0x00, 0x00,
  0x7c, 0xd7, 0xff, 0xff, 0x00, 0x00, 0x00, 0x00, 0x3e, 0xf9, 0xff, 0xff,
  0x04, 0x00, 0x00, 0x00, 0x48, 0x00, 0x00, 0x00, 0x7f, 0x35, 0x87, 0x3d,
  0x72, 0x67, 0x10, 0xbf, 0x52, 0x4e, 0x1d, 0xbd, 0xff, 0xd1, 0x19, 0xbf,
  0x09, 0x7c, 0x29, 0x3f, 0xcd, 0x58, 0x8c, 0xbd, 0x34, 0x18, 0xcf, 0xbe,
  0x57, 0x4f, 0x95, 0x3d, 0xd6, 0xe7, 0xca, 0xbc, 0xfb, 0x8e, 0xb9, 0xbd,
  0x33, 0xff, 0x0f, 0x3f, 0x61, 0xa8, 0xbb, 0x3e, 0x6d, 0xf9, 0x19, 0xbf,
  0x54, 0x4d, 0x03, 0xbf, 0xeb, 0x5a, 0x5c, 0x3f, 0x9b, 0x03, 0xa1, 0x3d,
  0xeb, 0x6d, 0x90, 0xbd, 0x47, 0xad, 0x92, 0xbe, 0x00, 0x00, 0x00, 0x00,
  0x00, 0x00, 0x00, 0x00, 0x00, 0x00, 0x00, 0x00, 0x9e, 0xf9, 0xff, 0xff,
  0x04, 0x00, 0x00, 0x00, 0x6c, 0x00, 0x00, 0x00, 0xd8, 0xa9, 0xa2, 0xbd,
  0xf8, 0x1d, 0x54, 0x3e, 0x27, 0x52, 0x10, 0x3e, 0xe8, 0x50, 0xdf, 0xbe,
  0xb6, 0x6a, 0xe9, 0x3d, 0x25, 0xe4, 0xad, 0xbd, 0x62, 0x39, 0x92, 0xbd,
  0x9c, 0x2f, 0xa0, 0x3e, 0x1b, 0x72, 0x93, 0x3e, 0x91, 0x49, 0x35, 0xbd,
  0xfd, 0xb2, 0xab, 0x3d, 0xaf, 0x7f, 0xa2, 0x3d, 0x62, 0x0d, 0x87, 0xbe,
  0xda, 0x30, 0x00, 0x3e, 0x21, 0x53, 0x78, 0x3d, 0xdc, 0xd6, 0x0f, 0x3c,
  0x88, 0x8a, 0x4a, 0xbe, 0x02, 0x8e, 0xcf, 0xbd, 0x75, 0x1d, 0xe1, 0x3d,
  0x88, 0x70, 0x7b, 0x3d, 0xf2, 0xf9, 0x92, 0x3e, 0x3e, 0x27, 0x3f, 0xbc,
  0x8a, 0x1f, 0x7d, 0x3e, 0x8e, 0xf7, 0xe4, 0x3d, 0xbd, 0x09, 0x26, 0xbe,
  0x1a, 0x6c, 0x13, 0xbd, 0x62, 0x50, 0xd4, 0x3e, 0x00, 0x00, 0x00, 0x00,
  0x00, 0x00, 0x00, 0x00, 0x1e, 0xfa, 0xff, 0xff, 0x04, 0x00, 0x00, 0x00,
  0x0c, 0x00, 0x00, 0x00, 0x00, 0x00, 0x00, 0x00, 0x00, 0x00, 0x00, 0x00,
  0x00, 0x00, 0x00, 0x00, 0x00, 0x00, 0x00, 0x00, 0x00, 0x00, 0x00, 0x00,
  0x3e, 0xfa, 0xff, 0xff, 0x04, 0x00, 0x00, 0x00, 0x24, 0x00, 0x00, 0x00,
  0xc6, 0x7b, 0x76, 0xbf, 0xb4, 0x31, 0x09, 0xbf, 0x60, 0xdd, 0xed, 0x3e,
  0xcb, 0x69, 0x42, 0x3f, 0x1c, 0x4c, 0x1a, 0x3f, 0x68, 0xac, 0x65, 0xbf,
  0xbd, 0xb9, 0xe7, 0x3d, 0x80, 0x4f, 0x3f, 0xbf, 0xc6, 0xd9, 0x1f, 0x3f,
  0x6e, 0xfa, 0xff, 0xff, 0x04, 0x00, 0x00, 0x00, 0x6c, 0x00, 0x00, 0x00,
  0x06, 0xb2, 0xb7, 0xbe, 0xe7, 0xd2, 0xa7, 0x3e, 0x11, 0xa6, 0x34, 0x3e,
  0x69, 0x08, 0x54, 0xbe, 0xcb, 0x6c, 0x2b, 0xbe, 0x15, 0x87, 0xa0, 0x3e,
  0x87, 0xdf, 0xba, 0x3c, 0xad, 0x59, 0x1d, 0xbd, 0x7e, 0x15, 0xb9, 0xbd,
  0x9e, 0xd5, 0xc1, 0xbb, 0x28, 0xf3, 0x24, 0xbe, 0x3f, 0xbb, 0x99, 0x3e,
  0x95, 0x38, 0xe9, 0xbd, 0xf5, 0xbb, 0x9e, 0x3e, 0x93, 0x3a, 0x8c, 0xbd,
  0xfe, 0xb6, 0x9a, 0xbe, 0xd3, 0x6e, 0xa9, 0xbe, 0x5b, 0x0a, 0x73, 0xbe,
  0xb6, 0x9e, 0x33, 0x3e, 0x8d, 0xdc, 0x02, 0x3e, 0xd5, 0x6e, 0x02, 0xbe,
  0x24, 0xf9, 0xc1, 0x3d, 0x80, 0x22, 0x17, 0x3e, 0xde, 0xcf, 0x85, 0x3e,
  0xea, 0x29, 0x95, 0x3e, 0xdf, 0xea, 0x56, 0xbe, 0x94, 0xfe, 0xa8, 0x3d,
  0x00, 0x00, 0x00, 0x00, 0x00, 0x00, 0x00, 0x00, 0xee, 0xfa, 0xff, 0xff,
  0x04, 0x00, 0x00, 0x00, 0x0c, 0x00, 0x00, 0x00, 0x71, 0x34, 0x90, 0xbe,
  0xf7, 0xab, 0x56, 0x3e, 0xed, 0x24, 0x66, 0x3f, 0x00, 0x00, 0x00, 0x00,
  0x00, 0x00, 0x00, 0x00, 0x0e, 0xfb, 0xff, 0xff, 0x04, 0x00, 0x00, 0x00,
  0x24, 0x00, 0x00, 0x00, 0x1d, 0x40, 0x2d, 0x3d, 0x60, 0x9a, 0xf2, 0x3e,
  0x73, 0x3f, 0x1f, 0x3c, 0x6a, 0xd6, 0xec, 0x3e, 0x59, 0x77, 0x69, 0xbe,
  0x7e, 0x93, 0xee, 0xbe, 0x54, 0xa6, 0xd5, 0x3d, 0xb5, 0x5c, 0xda, 0x3e,
  0x58, 0x81, 0x83, 0xbe, 0x3e, 0xfb, 0xff, 0xff, 0x04, 0x00, 0x00, 0x00,
  0x04, 0x00, 0x00, 0x00, 0x00, 0x00, 0x00, 0x00, 0x4e, 0xfb, 0xff, 0xff,
  0x04, 0x00, 0x00, 0x00, 0x40, 0x02, 0x00, 0x00, 0x17, 0x15, 0x80, 0xbe,
  0x95, 0x65, 0xa6, 0x3e, 0x64, 0x63, 0x83, 0x3e, 0x7f, 0xc4, 0xf3, 0x3c,
  0x49, 0x6a, 0xe3, 0x3c, 0xba, 0x92, 0xf9, 0xbd, 0xa3, 0x6d, 0x93, 0xbe,
  0xde, 0x9a, 0xee, 0x3e, 0x83, 0x8f, 0x3d, 0xbe, 0xd0, 0xde, 0xcf, 0xbe,
  0x02, 0xb7, 0x93, 0x3e, 0xc5, 0xfa, 0x01, 0x3f, 0x2e, 0x58, 0xcd, 0x3b,
  0x35, 0x28, 0x87, 0xbe, 0x2f, 0x9f, 0xf4, 0xbc, 0x33, 0xa7, 0xee, 0xbd,
  0xde, 0xc0, 0x04, 0x3e, 0xf9, 0xa1, 0x28, 0x3e, 0x99, 0x6f, 0xbc, 0x3d,
  0x6e, 0x98, 0x9d, 0xbe, 0x16, 0xab, 0xe3, 0x3d, 0x10, 0x2c, 0xc2, 0xbd,
  0x7d, 0xdb, 0x62, 0x3e, 0x5d, 0xe6, 0xc2, 0x3e, 0xd0, 0x47, 0x93, 0x3e,
  0x9b, 0xfe, 0x11, 0x3e, 0xca, 0x0b, 0xe2, 0xbd, 0xb0, 0x0b, 0x36, 0x3e,
  0x77, 0x23, 0xa8, 0x3d, 0x54, 0x22, 0x72, 0xbe, 0xb4, 0x60, 0x16, 0x3d,
  0xe8, 0xfa, 0xcd, 0x3e, 0x4c, 0xd1, 0x94, 0xbe, 0x4c, 0xc2, 0x36, 0xbe,
  0xa1, 0x19, 0x7a, 0xbe, 0x71, 0x24, 0x3a, 0xbe, 0x4f, 0xd5, 0x65, 0x3e,
  0x2f, 0x2c, 0x3c, 0xbe, 0xdc, 0x93, 0xbb, 0xbc, 0x2a, 0x4a, 0x00, 0x3b,
  0x9a, 0x1c, 0x61, 0xbe, 0xb9, 0x36, 0xb6, 0xbe, 0x4a, 0x17, 0x92, 0x3e,
  0x72, 0x74, 0x8a, 0x3e, 0xf7, 0x74, 0x83, 0xbe, 0x40, 0xab, 0xb8, 0x3d,
  0xf5, 0xc1, 0x3f, 0xbe, 0x33, 0x6e, 0x2f, 0xbe, 0x1e, 0xae, 0x89, 0xbd,
  0x3a, 0x8c, 0xa6, 0x3e, 0xa8, 0x54, 0x88, 0xbd, 0xb1, 0x53, 0x7d, 0xbd,
  0x91, 0x13, 0x06, 0x3e, 0x57, 0xc8, 0x8d, 0xbe, 0xfe, 0xfb, 0x3a, 0xbe,
  0xa3, 0x47, 0xdb, 0x3d, 0x28, 0x67, 0xdd, 0xbd, 0x90, 0x8d, 0x63, 0x3e,
  0xe3, 0xc2, 0xcb, 0x3d, 0x0a, 0xe9, 0x7c, 0x3e, 0x77, 0x71, 0x67, 0x3e,
  0x06, 0xa6, 0x30, 0x3e, 0xfc, 0x2c, 0x4f, 0x3c, 0xb1, 0x45, 0x65, 0xbe,
  0xeb, 0x1b, 0x28, 0xbe, 0x2b, 0xe9, 0xc1, 0xbe, 0xde, 0xc1, 0x40, 0xbe,
  0x98, 0x97, 0xf8, 0x3d, 0xb8, 0x02, 0x10, 0xbe, 0xe6, 0x0b, 0xaf, 0x3c,
  0x6a, 0xd3, 0x63, 0x3e, 0x22, 0x58, 0x5c, 0xbe, 0x0d, 0x85, 0x6c, 0x3c,
  0xb4, 0xa2, 0x59, 0xbe, 0xf1, 0x9e, 0xab, 0x3e, 0x63, 0x96, 0x9d, 0x3e,
  0x77, 0xd2, 0x58, 0x3e, 0x06, 0x7a, 0x2f, 0xbe, 0xf3, 0xf5, 0x3f, 0xbe,
  0x14, 0x9e, 0x3f, 0x3e, 0x6e, 0x5e, 0x9d, 0xbd, 0xca, 0x1c, 0xc1, 0x3d,
  0xe3, 0xca, 0x92, 0x3e, 0x92, 0x1e, 0xa8, 0xbd, 0x58, 0xb4, 0x69, 0xbe,
  0xa8, 0xc3, 0x96, 0xbe, 0xbb, 0x26, 0x87, 0xbe, 0x7d, 0x7a, 0x7d, 0x3e,
  0x22, 0x39, 0x1e, 0x3e, 0x08, 0x34, 0x71, 0xbe, 0x6a, 0xce, 0x2d, 0x3e,
  0xd7, 0x01, 0x5f, 0xbe, 0x76, 0x62, 0xce, 0xbe, 0x5e, 0x8a, 0xcf, 0x3d,
  0x94, 0x03, 0xdf, 0x3e, 0xc0, 0x7d, 0x8a, 0xbe, 0x5a, 0x8a, 0xd7, 0x3e,
  0xaa, 0x37, 0x83, 0x3e, 0x0d, 0xa4, 0x86, 0xbe, 0x8e, 0x55, 0x92, 0x3e,
  0x5c, 0x0c, 0x4f, 0x3e, 0xcc, 0x3a, 0xf8, 0xbc, 0x65, 0xd2, 0x8b, 0xbe,
  0x6e, 0x94, 0xcf, 0xbd, 0x92, 0x1f, 0x42, 0x3d, 0xa4, 0x2b, 0x0a, 0xbe,
  0x9a, 0x75, 0xd1, 0x3d, 0x36, 0xd6, 0x43, 0x3e, 0x62, 0x03, 0xac, 0x3e,
  0x17, 0xdc, 0xf3, 0xbd, 0x51, 0x0c, 0x5c, 0xbe, 0x24, 0xe9, 0xac, 0xbe,
  0xe5, 0xca, 0xd6, 0x3d, 0xfd, 0x4c, 0xb1, 0xbd, 0x31, 0x45, 0x55, 0x3e,
  0xd6, 0xff, 0x28, 0xbe, 0x3d, 0xa5, 0x68, 0x3d, 0x16, 0x9f, 0xbf, 0xbd,
  0x7b, 0xf6, 0x94, 0xbd, 0x66, 0x29, 0x9c, 0xbe, 0x95, 0x56, 0x60, 0x3d,
  0xf5, 0x4d, 0x51, 0xbc, 0xa9, 0xda, 0xdd, 0x3e, 0x23, 0xd6, 0x7a, 0xbe,
  0x13, 0x24, 0xe9, 0xba, 0x3e, 0xb7, 0x3d, 0x3e, 0x8d, 0x30, 0x5c, 0xbe,
  0x9d, 0xe6, 0xe1, 0x3d, 0xf7, 0x5c, 0x53, 0xbd, 0xb8, 0x01, 0x08, 0x3e,
  0x12, 0xae, 0x24, 0xbe, 0x01, 0x3a, 0xe5, 0xbd, 0xc9, 0x9e, 0x16, 0x3e,
  0xa3, 0x7b, 0x01, 0xbf, 0xec, 0x33, 0xc5, 0x3e, 0x2e, 0x24, 0xc2, 0x3d,
  0xb4, 0xfb, 0x63, 0x3e, 0x81, 0x59, 0x1a, 0xbe, 0xa8, 0xed, 0xf6, 0xbc,
  0x93, 0x40, 0xe9, 0x3d, 0x96, 0x50, 0x50, 0x3c, 0xa7, 0xd1, 0xc0, 0xbe,
  0xcd, 0x31, 0xb1, 0x3e, 0x74, 0xba, 0x66, 0xba, 0x00, 0x00, 0x00, 0x00,
  0x9e, 0xfd, 0xff, 0xff, 0x04, 0x00, 0x00, 0x00, 0x0c, 0x00, 0x00, 0x00,
  0x94, 0xf8, 0x3e, 0x3d, 0x1c, 0xd1, 0x0e, 0xc0, 0x98, 0x5c, 0x5b, 0xc0,
  0x00, 0x00, 0x00, 0x00, 0x00, 0x00, 0x00, 0x00, 0xbe, 0xfd, 0xff, 0xff,
  0x04, 0x00, 0x00, 0x00, 0x0c, 0x00, 0x00, 0x00, 0x2c, 0xf1, 0xf0, 0x41,
  0x5c, 0xc3, 0xd1, 0x41, 0xbf, 0x1d, 0x06, 0x41, 0x00, 0x00, 0x00, 0x00,
  0x00, 0x00, 0x00, 0x00, 0xde, 0xfd, 0xff, 0xff, 0x04, 0x00, 0x00, 0x00,
  0x18, 0x00, 0x00, 0x00, 0x95, 0x94, 0x9b, 0xbf, 0xb3, 0x6b, 0x6b, 0xbf,
  0xf3, 0x4e, 0x75, 0xbf, 0x46, 0x3f, 0xd4, 0xbe, 0x82, 0x7a, 0x68, 0xbf,
  0xf7, 0x39, 0x66, 0xbf, 0x00, 0x00, 0x00, 0x00, 0x00, 0x00, 0x00, 0x00,
  0x00, 0x00, 0x00, 0x00, 0x0e, 0xfe, 0xff, 0xff, 0x04, 0x00, 0x00, 0x00,
  0x18, 0x00, 0x00, 0x00, 0x9d, 0x6b, 0x7b, 0x40, 0xb5, 0xc7, 0xac, 0x3f,
  0xec, 0xa4, 0x14, 0x40, 0x9b, 0x8b, 0xef, 0x3f, 0xf7, 0xfd, 0x66, 0x3f,
  0x74, 0xea, 0x98, 0x40, 0x00, 0x00, 0x00, 0x00, 0x00, 0x00, 0x00, 0x00,
  0x00, 0x00, 0x00, 0x00, 0x3e, 0xfe, 0xff, 0xff, 0x04, 0x00, 0x00, 0x00,
  0x0c, 0x00, 0x00, 0x00, 0x1f, 0xb5, 0x60, 0x40, 0xea, 0xf0, 0x60, 0x40,
  0x2d, 0x6f, 0x2e, 0x40, 0x00, 0x00, 0x00, 0x00, 0x00, 0x00, 0x00, 0x00,
  0x5e, 0xfe, 0xff, 0xff, 0x04, 0x00, 0x00, 0x00, 0x0c, 0x00, 0x00, 0x00,
  0xa8, 0x50, 0x6d, 0xbf, 0xe5, 0x34, 0x1f, 0xbf, 0x53, 0xc8, 0xd8, 0xbf,
  0x00, 0x00, 0x00, 0x00, 0x00, 0x00, 0x00, 0x00, 0x7e, 0xfe, 0xff, 0xff,
  0x04, 0x00, 0x00, 0x00, 0x0c, 0x00, 0x00, 0x00, 0xf5, 0x23, 0x80, 0x3d,
  0x8f, 0x84, 0x09, 0xbe, 0x88, 0xaf, 0x92, 0x3e, 0x00, 0x00, 0x00, 0x00,
  0x00, 0x00, 0x00, 0x00, 0x9e, 0xfe, 0xff, 0xff, 0x04, 0x00, 0x00, 0x00,
  0x18, 0x00, 0x00, 0x00, 0x43, 0x24, 0x49, 0x3e, 0x75, 0x69, 0x99, 0x3c,
  0x76, 0xdc, 0x94, 0xbd, 0x85, 0x9c, 0x83, 0x3e, 0xbe, 0x9f, 0xdc, 0x3d,
  0xa3, 0x41, 0x05, 0xbf, 0x00, 0x00, 0x00, 0x00, 0x00, 0x00, 0x00, 0x00,
  0x00, 0x00, 0x00, 0x00, 0xce, 0xfe, 0xff, 0xff, 0x04, 0x00, 0x00, 0x00,
  0x18, 0x00, 0x00, 0x00, 0x03, 0x9d, 0xbb, 0x3d, 0x9e, 0x52, 0x52, 0x3e,
  0x13, 0xbe, 0x85, 0xbd, 0x6f, 0xc9, 0xff, 0xbd, 0x85, 0x3a, 0x2f, 0x3e,
  0x12, 0x1b, 0x89, 0x3d, 0x00, 0x00, 0x00, 0x00, 0x00, 0x00, 0x00, 0x00,
  0x00, 0x00, 0x00, 0x00, 0xfe, 0xfe, 0xff, 0xff, 0x04, 0x00, 0x00, 0x00,
  0x0c, 0x00, 0x00, 0x00, 0x57, 0xfb, 0x3f, 0xbc, 0xee, 0x2a, 0x8a, 0x3b,
  0x2a, 0x7c, 0xa2, 0x3d, 0x00, 0x00, 0x00, 0x00, 0x00, 0x00, 0x00, 0x00,
  0x1e, 0xff, 0xff, 0xff, 0x04, 0x00, 0x00, 0x00, 0x08, 0x00, 0x00, 0x00,
  0xff, 0xff, 0xff, 0xff, 0x18, 0x00, 0x00, 0x00, 0x00, 0x00, 0x00, 0x00,
  0x7c, 0xdd, 0xff, 0xff, 0x00, 0x00, 0x00, 0x00, 0x00, 0x00, 0x00, 0x00,
  0x00, 0x00, 0x00, 0x00, 0x8c, 0xdd, 0xff, 0xff, 0x0f, 0x00, 0x00, 0x00,
  0x4d, 0x4c, 0x49, 0x52, 0x20, 0x43, 0x6f, 0x6e, 0x76, 0x65, 0x72, 0x74,
  0x65, 0x64, 0x2e, 0x00, 0x01, 0x00, 0x00, 0x00, 0x14, 0x00, 0x00, 0x00,
  0x00, 0x00, 0x0e, 0x00, 0x18, 0x00, 0x04, 0x00, 0x08, 0x00, 0x0c, 0x00,
  0x10, 0x00, 0x14, 0x00, 0x0e, 0x00, 0x00, 0x00, 0xd0, 0x04, 0x00, 0x00,
  0xc4, 0x04, 0x00, 0x00, 0xb8, 0x04, 0x00, 0x00, 0x14, 0x00, 0x00, 0x00,
  0x04, 0x00, 0x00, 0x00, 0x04, 0x00, 0x00, 0x00, 0x6d, 0x61, 0x69, 0x6e,
  0x00, 0x00, 0x00, 0x00, 0x12, 0x00, 0x00, 0x00, 0x50, 0x04, 0x00, 0x00,
  0xf0, 0x03, 0x00, 0x00, 0x8c, 0x03, 0x00, 0x00, 0x48, 0x03, 0x00, 0x00,
  0x14, 0x03, 0x00, 0x00, 0xd0, 0x02, 0x00, 0x00, 0x8c, 0x02, 0x00, 0x00,
  0x48, 0x02, 0x00, 0x00, 0x14, 0x02, 0x00, 0x00, 0xe0, 0x01, 0x00, 0x00,
  0x9c, 0x01, 0x00, 0x00, 0x58, 0x01, 0x00, 0x00, 0x14, 0x01, 0x00, 0x00,
  0xe0, 0x00, 0x00, 0x00, 0xac, 0x00, 0x00, 0x00, 0x84, 0x00, 0x00, 0x00,
  0x40, 0x00, 0x00, 0x00, 0x04, 0x00, 0x00, 0x00, 0xc2, 0xfc, 0xff, 0xff,
  0x00, 0x00, 0x00, 0x09, 0x07, 0x00, 0x00, 0x00, 0x24, 0x00, 0x00, 0x00,
  0x18, 0x00, 0x00, 0x00, 0x0c, 0x00, 0x00, 0x00, 0x00, 0x00, 0x06, 0x00,
  0x08, 0x00, 0x04, 0x00, 0x06, 0x00, 0x00, 0x00, 0x00, 0x00, 0x80, 0x3f,
  0x01, 0x00, 0x00, 0x00, 0x26, 0x00, 0x00, 0x00, 0x01, 0x00, 0x00, 0x00,
  0x25, 0x00, 0x00, 0x00, 0x9a, 0xfc, 0xff, 0xff, 0x00, 0x00, 0x00, 0x08,
  0x06, 0x00, 0x00, 0x00, 0x18, 0x00, 0x00, 0x00, 0x0c, 0x00, 0x00, 0x00,
  0x04, 0x00, 0x00, 0x00, 0x7c, 0xde, 0xff, 0xff, 0x01, 0x00, 0x00, 0x00,
  0x25, 0x00, 0x00, 0x00, 0x03, 0x00, 0x00, 0x00, 0x24, 0x00, 0x00, 0x00,
  0x0c, 0x00, 0x00, 0x00, 0x04, 0x00, 0x00, 0x00, 0x00, 0x00, 0x0a, 0x00,
  0x10, 0x00, 0x04, 0x00, 0x08, 0x00, 0x0c, 0x00, 0x0a, 0x00, 0x00, 0x00,
  0x05, 0x00, 0x00, 0x00, 0x10, 0x00, 0x00, 0x00, 0x04, 0x00, 0x00, 0x00,
  0x01, 0x00, 0x00, 0x00, 0x24, 0x00, 0x00, 0x00, 0x02, 0x00, 0x00, 0x00,
  0x23, 0x00, 0x00, 0x00, 0x01, 0x00, 0x00, 0x00, 0xfe, 0xfc, 0xff, 0xff,
  0x00, 0x00, 0x00, 0x0b, 0x04, 0x00, 0x00, 0x00, 0x18, 0x00, 0x00, 0x00,
  0x0c, 0x00, 0x00, 0x00, 0x04, 0x00, 0x00, 0x00, 0xe0, 0xde, 0xff, 0xff,
  0x01, 0x00, 0x00, 0x00, 0x23, 0x00, 0x00, 0x00, 0x02, 0x00, 0x00, 0x00,
  0x22, 0x00, 0x00, 0x00, 0x09, 0x00, 0x00, 0x00, 0x2e, 0xfd, 0xff, 0xff,
  0x00, 0x00, 0x00, 0x15, 0x03, 0x00, 0x00, 0x00, 0x18, 0x00, 0x00, 0x00,
  0x0c, 0x00, 0x00, 0x00, 0x04, 0x00, 0x00, 0x00, 0x10, 0xdf, 0xff, 0xff,
  0x01, 0x00, 0x00, 0x00, 0x22, 0x00, 0x00, 0x00, 0x02, 0x00, 0x00, 0x00,
  0x21, 0x00, 0x00, 0x00, 0x08, 0x00, 0x00, 0x00, 0x5e, 0xfd, 0xff, 0xff,
  0x00, 0x00, 0x00, 0x05, 0x02, 0x00, 0x00, 0x00, 0x2c, 0x00, 0x00, 0x00,
  0x20, 0x00, 0x00, 0x00, 0x04, 0x00, 0x00, 0x00, 0xae, 0xfd, 0xff, 0xff,
  0x00, 0x00, 0x00, 0x01, 0x02, 0x00, 0x00, 0x00, 0x02, 0x00, 0x00, 0x00,
  0x02, 0x00, 0x00, 0x00, 0x02, 0x00, 0x00, 0x00, 0x01, 0x00, 0x00, 0x00,
  0x21, 0x00, 0x00, 0x00, 0x01, 0x00, 0x00, 0x00, 0x20, 0x00, 0x00, 0x00,
  0x9e, 0xfd, 0xff, 0xff, 0x00, 0x00, 0x00, 0x01, 0x01, 0x00, 0x00, 0x00,
  0x24, 0x00, 0x00, 0x00, 0x18, 0x00, 0x00, 0x00, 0x04, 0x00, 0x00, 0x00,
  0x90, 0xfd, 0xff, 0xff, 0x00, 0x00, 0x01, 0x01, 0x01, 0x00, 0x00, 0x00,
  0x01, 0x00, 0x00, 0x00, 0x01, 0x00, 0x00, 0x00, 0x20, 0x00, 0x00, 0x00,
  0x03, 0x00, 0x00, 0x00, 0x1f, 0x00, 0x00, 0x00, 0x14, 0x00, 0x00, 0x00,
  0x03, 0x00, 0x00, 0x00, 0x82, 0xfd, 0xff, 0xff, 0x00, 0x00, 0x00, 0x02,
  0x28, 0x00, 0x00, 0x00, 0x1c, 0x00, 0x00, 0x00, 0x04, 0x00, 0x00, 0x00,
  0x74, 0xfd, 0xff, 0xff, 0x00, 0x00, 0x00, 0x01, 0x01, 0x00, 0x00, 0x00,
  0x01, 0x00, 0x00, 0x00, 0x01, 0x00, 0x00, 0x00, 0x01, 0x00, 0x00, 0x00,
  0x1f, 0x00, 0x00, 0x00, 0x03, 0x00, 0x00, 0x00, 0x1e, 0x00, 0x00, 0x00,
  0x13, 0x00, 0x00, 0x00, 0x12, 0x00, 0x00, 0x00, 0x1e, 0xfe, 0xff, 0xff,
  0x00, 0x00, 0x00, 0x0b, 0x04, 0x00, 0x00, 0x00, 0x18, 0x00, 0x00, 0x00,
  0x0c, 0x00, 0x00, 0x00, 0x04, 0x00, 0x00, 0x00, 0x00, 0xe0, 0xff, 0xff,
  0x01, 0x00, 0x00, 0x00, 0x1e, 0x00, 0x00, 0x00, 0x02, 0x00, 0x00, 0x00,
  0x1d, 0x00, 0x00, 0x00, 0x06, 0x00, 0x00, 0x00, 0x4e, 0xfe, 0xff, 0xff,
  0x00, 0x00, 0x00, 0x15, 0x03, 0x00, 0x00, 0x00, 0x18, 0x00, 0x00, 0x00,
  0x0c, 0x00, 0x00, 0x00, 0x04, 0x00, 0x00, 0x00, 0x30, 0xe0, 0xff, 0xff,
  0x01, 0x00, 0x00, 0x00, 0x1d, 0x00, 0x00, 0x00, 0x02, 0x00, 0x00, 0x00,
  0x1c, 0x00, 0x00, 0x00, 0x07, 0x00, 0x00, 0x00, 0x7e, 0xfe, 0xff, 0xff,
  0x00, 0x00, 0x00, 0x05, 0x02, 0x00, 0x00, 0x00, 0x2c, 0x00, 0x00, 0x00,
  0x20, 0x00, 0x00, 0x00, 0x04, 0x00, 0x00, 0x00, 0xce, 0xfe, 0xff, 0xff,
  0x00, 0x00, 0x00, 0x01, 0x03, 0x00, 0x00, 0x00, 0x03, 0x00, 0x00, 0x00,
  0x03, 0x00, 0x00, 0x00, 0x03, 0x00, 0x00, 0x00, 0x01, 0x00, 0x00, 0x00,
  0x1c, 0x00, 0x00, 0x00, 0x01, 0x00, 0x00, 0x00, 0x1b, 0x00, 0x00, 0x00,
  0xbe, 0xfe, 0xff, 0xff, 0x00, 0x00, 0x00, 0x01, 0x01, 0x00, 0x00, 0x00,
  0x24, 0x00, 0x00, 0x00, 0x18, 0x00, 0x00, 0x00, 0x04, 0x00, 0x00, 0x00,
  0xb0, 0xfe, 0xff, 0xff, 0x00, 0x00, 0x01, 0x01, 0x01, 0x00, 0x00, 0x00,
  0x01, 0x00, 0x00, 0x00, 0x01, 0x00, 0x00, 0x00, 0x1b, 0x00, 0x00, 0x00,
  0x03, 0x00, 0x00, 0x00, 0x1a, 0x00, 0x00, 0x00, 0x11, 0x00, 0x00, 0x00,
  0x05, 0x00, 0x00, 0x00, 0xa2, 0xfe, 0xff, 0xff, 0x00, 0x00, 0x00, 0x02,
  0x28, 0x00, 0x00, 0x00, 0x1c, 0x00, 0x00, 0x00, 0x04, 0x00, 0x00, 0x00,
  0x94, 0xfe, 0xff, 0xff, 0x00, 0x00, 0x00, 0x01, 0x01, 0x00, 0x00, 0x00,
  0x01, 0x00, 0x00, 0x00, 0x01, 0x00, 0x00, 0x00, 0x01, 0x00, 0x00, 0x00,
  0x1a, 0x00, 0x00, 0x00, 0x03, 0x00, 0x00, 0x00, 0x19, 0x00, 0x00, 0x00,
  0x10, 0x00, 0x00, 0x00, 0x12, 0x00, 0x00, 0x00, 0x3e, 0xff, 0xff, 0xff,
  0x00, 0x00, 0x00, 0x0b, 0x04, 0x00, 0x00, 0x00, 0x18, 0x00, 0x00, 0x00,
  0x0c, 0x00, 0x00, 0x00, 0x04, 0x00, 0x00, 0x00, 0x20, 0xe1, 0xff, 0xff,
  0x01, 0x00, 0x00, 0x00, 0x19, 0x00, 0x00, 0x00, 0x02, 0x00, 0x00, 0x00,
  0x18, 0x00, 0x00, 0x00, 0x0b, 0x00, 0x00, 0x00, 0x6e, 0xff, 0xff, 0xff,
  0x00, 0x00, 0x00, 0x15, 0x03, 0x00, 0x00, 0x00, 0x18, 0x00, 0x00, 0x00,
  0x0c, 0x00, 0x00, 0x00, 0x04, 0x00, 0x00, 0x00, 0x50, 0xe1, 0xff, 0xff,
  0x01, 0x00, 0x00, 0x00, 0x18, 0x00, 0x00, 0x00, 0x02, 0x00, 0x00, 0x00,
  0x17, 0x00, 0x00, 0x00, 0x0a, 0x00, 0x00, 0x00, 0x00, 0x00, 0x0e, 0x00,
  0x1a, 0x00, 0x08, 0x00, 0x0c, 0x00, 0x10, 0x00, 0x07, 0x00, 0x14, 0x00,
  0x0e, 0x00, 0x00, 0x00, 0x00, 0x00, 0x00, 0x05, 0x02, 0x00, 0x00, 0x00,
  0x3c, 0x00, 0x00, 0x00, 0x30, 0x00, 0x00, 0x00, 0x14, 0x00, 0x00, 0x00,
  0x00, 0x00, 0x0e, 0x00, 0x18, 0x00, 0x07, 0x00, 0x08, 0x00, 0x0c, 0x00,
  0x10, 0x00, 0x14, 0x00, 0x0e, 0x00, 0x00, 0x00, 0x00, 0x00, 0x00, 0x01,
  0x04, 0x00, 0x00, 0x00, 0x04, 0x00, 0x00, 0x00, 0x04, 0x00, 0x00, 0x00,
  0x04, 0x00, 0x00, 0x00, 0x01, 0x00, 0x00, 0x00, 0x17, 0x00, 0x00, 0x00,
  0x01, 0x00, 0x00, 0x00, 0x16, 0x00, 0x00, 0x00, 0x00, 0x00, 0x0e, 0x00,
  0x18, 0x00, 0x08, 0x00, 0x0c, 0x00, 0x10, 0x00, 0x07, 0x00, 0x14, 0x00,
  0x0e, 0x00, 0x00, 0x00, 0x00, 0x00, 0x00, 0x01, 0x01, 0x00, 0x00, 0x00,
  0x30, 0x00, 0x00, 0x00, 0x24, 0x00, 0x00, 0x00, 0x10, 0x00, 0x00, 0x00,
  0x0c, 0x00, 0x10, 0x00, 0x06, 0x00, 0x08, 0x00, 0x0c, 0x00, 0x07, 0x00,
  0x0c, 0x00, 0x00, 0x00, 0x00, 0x00, 0x01, 0x01, 0x01, 0x00, 0x00, 0x00,
  0x01, 0x00, 0x00, 0x00, 0x01, 0x00, 0x00, 0x00, 0x16, 0x00, 0x00, 0x00,
  0x03, 0x00, 0x00, 0x00, 0x15, 0x00, 0x00, 0x00, 0x0f, 0x00, 0x00, 0x00,
  0x02, 0x00, 0x00, 0x00, 0x00, 0x00, 0x0e, 0x00, 0x14, 0x00, 0x00, 0x00,
  0x08, 0x00, 0x0c, 0x00, 0x07, 0x00, 0x10, 0x00, 0x0e, 0x00, 0x00, 0x00,
  0x00, 0x00, 0x00, 0x02, 0x34, 0x00, 0x00, 0x00, 0x28, 0x00, 0x00, 0x00,
  0x10, 0x00, 0x00, 0x00, 0x0c, 0x00, 0x14, 0x00, 0x07, 0x00, 0x08, 0x00,
  0x0c, 0x00, 0x10, 0x00, 0x0c, 0x00, 0x00, 0x00, 0x00, 0x00, 0x00, 0x01,
  0x01, 0x00, 0x00, 0x00, 0x01, 0x00, 0x00, 0x00, 0x01, 0x00, 0x00, 0x00,
  0x01, 0x00, 0x00, 0x00, 0x15, 0x00, 0x00, 0x00, 0x03, 0x00, 0x00, 0x00,
  0x00, 0x00, 0x00, 0x00, 0x0e, 0x00, 0x00, 0x00, 0x0d, 0x00, 0x00, 0x00,
  0x01, 0x00, 0x00, 0x00, 0x26, 0x00, 0x00, 0x00, 0x01, 0x00, 0x00, 0x00,
  0x00, 0x00, 0x00, 0x00, 0x27, 0x00, 0x00, 0x00, 0xc0, 0x1c, 0x00, 0x00,
  0x2c, 0x1c, 0x00, 0x00, 0xe8, 0x1b, 0x00, 0x00, 0xa4, 0x1b, 0x00, 0x00,
  0x70, 0x1b, 0x00, 0x00, 0x3c, 0x1b, 0x00, 0x00, 0x94, 0x1a, 0x00, 0x00,
  0xe8, 0x19, 0x00, 0x00, 0x40, 0x19, 0x00, 0x00, 0x94, 0x18, 0x00, 0x00,
  0xec, 0x17, 0x00, 0x00, 0x40, 0x17, 0x00, 0x00, 0xc4, 0x16, 0x00, 0x00,
  0x0c, 0x16, 0x00, 0x00, 0x48, 0x15, 0x00, 0x00, 0x98, 0x14, 0x00, 0x00,
  0xd4, 0x13, 0x00, 0x00, 0x24, 0x13, 0x00, 0x00, 0x6c, 0x12, 0x00, 0x00,
  0xa4, 0x11, 0x00, 0x00, 0xf4, 0x10, 0x00, 0x00, 0x18, 0x10, 0x00, 0x00,
  0xec, 0x0d, 0x00, 0x00, 0x3c, 0x0d, 0x00, 0x00, 0x6c, 0x0c, 0x00, 0x00,
  0x9c, 0x0b, 0x00, 0x00, 0xc0, 0x0a, 0x00, 0x00, 0x94, 0x08, 0x00, 0x00,
  0xe4, 0x07, 0x00, 0x00, 0x14, 0x07, 0x00, 0x00, 0x44, 0x06, 0x00, 0x00,
  0x64, 0x05, 0x00, 0x00, 0xc0, 0x03, 0x00, 0x00, 0x10, 0x03, 0x00, 0x00,
  0x40, 0x02, 0x00, 0x00, 0x70, 0x01, 0x00, 0x00, 0xdc, 0x00, 0x00, 0x00,
  0x4c, 0x00, 0x00, 0x00, 0x04, 0x00, 0x00, 0x00, 0xf0, 0xe3, 0xff, 0xff,
  0x34, 0x00, 0x00, 0x00, 0x27, 0x00, 0x00, 0x00, 0x1c, 0x00, 0x00, 0x00,
  0x14, 0x00, 0x00, 0x00, 0x04, 0x00, 0x00, 0x00, 0x02, 0x00, 0x00, 0x00,
  0xff, 0xff, 0xff, 0xff, 0x06, 0x00, 0x00, 0x00, 0x54, 0xe3, 0xff, 0xff,
  0x08, 0x00, 0x00, 0x00, 0x49, 0x64, 0x65, 0x6e, 0x74, 0x69, 0x74, 0x79,
  0x00, 0x00, 0x00, 0x00, 0x02, 0x00, 0x00, 0x00, 0x01, 0x00, 0x00, 0x00,
  0x06, 0x00, 0x00, 0x00, 0x34, 0xe4, 0xff, 0xff, 0x7c, 0x00, 0x00, 0x00,
  0x26, 0x00, 0x00, 0x00, 0x1c, 0x00, 0x00, 0x00, 0x14, 0x00, 0x00, 0x00,
  0x04, 0x00, 0x00, 0x00, 0x02, 0x00, 0x00, 0x00, 0xff, 0xff, 0xff, 0xff,
  0x06, 0x00, 0x00, 0x00, 0x98, 0xe3, 0xff, 0xff, 0x51, 0x00, 0x00, 0x00,
  0x73, 0x65, 0x71, 0x75, 0x65, 0x6e, 0x74, 0x69, 0x61, 0x6c, 0x5f, 0x32,
  0x2f, 0x64, 0x65, 0x6e, 0x73, 0x65, 0x5f, 0x33, 0x2f, 0x42, 0x69, 0x61,
  0x73, 0x41, 0x64, 0x64, 0x3b, 0x53, 0x74, 0x61, 0x74, 0x65, 0x66, 0x75,
  0x6c, 0x50, 0x61, 0x72, 0x74, 0x69, 0x74, 0x69, 0x6f, 0x6e, 0x65, 0x64,
  0x43, 0x61, 0x6c, 0x6c, 0x2f, 0x73, 0x65, 0x71, 0x75, 0x65, 0x6e, 0x74,
  0x69, 0x61, 0x6c, 0x5f, 0x32, 0x2f, 0x64, 0x65, 0x6e, 0x73, 0x65, 0x5f,
  0x33, 0x2f, 0x42, 0x69, 0x61, 0x73, 0x41, 0x64, 0x64, 0x00, 0x00, 0x00,
  0x02, 0x00, 0x00, 0x00, 0x01, 0x00, 0x00, 0x00, 0x06, 0x00, 0x00, 0x00,
  0xc0, 0xe4, 0xff, 0xff, 0x80, 0x00, 0x00, 0x00, 0x25, 0x00, 0x00, 0x00,
  0x1c, 0x00, 0x00, 0x00, 0x14, 0x00, 0x00, 0x00, 0x04, 0x00, 0x00, 0x00,
  0x02, 0x00, 0x00, 0x00, 0xff, 0xff, 0xff, 0xff, 0x18, 0x00, 0x00, 0x00,
  0x24, 0xe4, 0xff, 0xff, 0x55, 0x00, 0x00, 0x00, 0x73, 0x65, 0x71, 0x75,
  0x65, 0x6e, 0x74, 0x69, 0x61, 0x6c, 0x5f, 0x32, 0x2f, 0x66, 0x6c, 0x61,
  0x74, 0x74, 0x65, 0x6e, 0x5f, 0x31, 0x2f, 0x52, 0x65, 0x73, 0x68, 0x61,
  0x70, 0x65, 0x3b, 0x53, 0x74, 0x61, 0x74, 0x65, 0x66, 0x75, 0x6c, 0x50,
  0x61, 0x72, 0x74, 0x69, 0x74, 0x69, 0x6f, 0x6e, 0x65, 0x64, 0x43, 0x61,
  0x6c, 0x6c, 0x2f, 0x73, 0x65, 0x71, 0x75, 0x65, 0x6e, 0x74, 0x69, 0x61,
  0x6c, 0x5f, 0x32, 0x2f, 0x66, 0x6c, 0x61, 0x74, 0x74, 0x65, 0x6e, 0x5f,
  0x31, 0x2f, 0x52, 0x65, 0x73, 0x68, 0x61, 0x70, 0x65, 0x00, 0x00, 0x00,
  0x02, 0x00, 0x00, 0x00, 0x01, 0x00, 0x00, 0x00, 0x18, 0x00, 0x00, 0x00,
  0x50, 0xe5, 0xff, 0xff, 0xb4, 0x00, 0x00, 0x00, 0x24, 0x00, 0x00, 0x00,
  0x24, 0x00, 0x00, 0x00, 0x1c, 0x00, 0x00, 0x00, 0x04, 0x00, 0x00, 0x00,
  0x04, 0x00, 0x00, 0x00, 0xff, 0xff, 0xff, 0xff, 0x02, 0x00, 0x00, 0x00,
  0x02, 0x00, 0x00, 0x00, 0x06, 0x00, 0x00, 0x00, 0xbc, 0xe4, 0xff, 0xff,
  0x80, 0x00, 0x00, 0x00, 0x73, 0x65, 0x71, 0x75, 0x65, 0x6e, 0x74, 0x69,
  0x61, 0x6c, 0x5f, 0x32, 0x2f, 0x62, 0x61, 0x74, 0x63, 0x68, 0x5f, 0x6e,
  0x6f, 0x72, 0x6d, 0x61, 0x6c, 0x69, 0x7a, 0x61, 0x74, 0x69, 0x6f, 0x6e,
  0x5f, 0x39, 0x2f, 0x46, 0x75, 0x73, 0x65, 0x64, 0x42, 0x61, 0x74, 0x63,
  0x68, 0x4e, 0x6f, 0x72, 0x6d, 0x56, 0x33, 0x3b, 0x53, 0x74, 0x61, 0x74,
  0x65, 0x66, 0x75, 0x6c, 0x50, 0x61, 0x72, 0x74, 0x69, 0x74, 0x69, 0x6f,
  0x6e, 0x65, 0x64, 0x43, 0x61, 0x6c, 0x6c, 0x2f, 0x73, 0x65, 0x71, 0x75,
  0x65, 0x6e, 0x74, 0x69, 0x61, 0x6c, 0x5f, 0x32, 0x2f, 0x62, 0x61, 0x74,
  0x63, 0x68, 0x5f, 0x6e, 0x6f, 0x72, 0x6d, 0x61, 0x6c, 0x69, 0x7a, 0x61,
  0x74, 0x69, 0x6f, 0x6e, 0x5f, 0x39, 0x2f, 0x46, 0x75, 0x73, 0x65, 0x64,
  0x42, 0x61, 0x74, 0x63, 0x68, 0x4e, 0x6f, 0x72, 0x6d, 0x56, 0x33, 0x33,
  0x00, 0x00, 0x00, 0x00, 0x04, 0x00, 0x00, 0x00, 0x01, 0x00, 0x00, 0x00,
  0x02, 0x00, 0x00, 0x00, 0x02, 0x00, 0x00, 0x00, 0x06, 0x00, 0x00, 0x00,
  0x1c, 0xe6, 0xff, 0xff, 0xb4, 0x00, 0x00, 0x00, 0x23, 0x00, 0x00, 0x00,
  0x24, 0x00, 0x00, 0x00, 0x1c, 0x00, 0x00, 0x00, 0x04, 0x00, 0x00, 0x00,
  0x04, 0x00, 0x00, 0x00, 0xff, 0xff, 0xff, 0xff, 0x02, 0x00, 0x00, 0x00,
  0x02, 0x00, 0x00, 0x00, 0x06, 0x00, 0x00, 0x00, 0x88, 0xe5, 0xff, 0xff,
  0x80, 0x00, 0x00, 0x00, 0x73, 0x65, 0x71, 0x75, 0x65, 0x6e, 0x74, 0x69,
  0x61, 0x6c, 0x5f, 0x32, 0x2f, 0x62, 0x61, 0x74, 0x63, 0x68, 0x5f, 0x6e,
  0x6f, 0x72, 0x6d, 0x61, 0x6c, 0x69, 0x7a, 0x61, 0x74, 0x69, 0x6f, 0x6e,
  0x5f, 0x39, 0x2f, 0x46, 0x75, 0x73, 0x65, 0x64, 0x42, 0x61, 0x74, 0x63,
  0x68, 0x4e, 0x6f, 0x72, 0x6d, 0x56, 0x33, 0x3b, 0x53, 0x74, 0x61, 0x74,
  0x65, 0x66, 0x75, 0x6c, 0x50, 0x61, 0x72, 0x74, 0x69, 0x74, 0x69, 0x6f,
  0x6e, 0x65, 0x64, 0x43, 0x61, 0x6c, 0x6c, 0x2f, 0x73, 0x65, 0x71, 0x75,
  0x65, 0x6e, 0x74, 0x69, 0x61, 0x6c, 0x5f, 0x32, 0x2f, 0x62, 0x61, 0x74,
  0x63, 0x68, 0x5f, 0x6e, 0x6f, 0x72, 0x6d, 0x61, 0x6c, 0x69, 0x7a, 0x61,
  0x74, 0x69, 0x6f, 0x6e, 0x5f, 0x39, 0x2f, 0x46, 0x75, 0x73, 0x65, 0x64,
  0x42, 0x61, 0x74, 0x63, 0x68, 0x4e, 0x6f, 0x72, 0x6d, 0x56, 0x33, 0x32,
  0x00, 0x00, 0x00, 0x00, 0x04, 0x00, 0x00, 0x00, 0x01, 0x00, 0x00, 0x00,
  0x02, 0x00, 0x00, 0x00, 0x02, 0x00, 0x00, 0x00, 0x06, 0x00, 0x00, 0x00,
  0xe8, 0xe6, 0xff, 0xff, 0x94, 0x00, 0x00, 0x00, 0x22, 0x00, 0x00, 0x00,
  0x24, 0x00, 0x00, 0x00, 0x1c, 0x00, 0x00, 0x00, 0x04, 0x00, 0x00, 0x00,
  0x04, 0x00, 0x00, 0x00, 0xff, 0xff, 0xff, 0xff, 0x02, 0x00, 0x00, 0x00,
  0x02, 0x00, 0x00, 0x00, 0x06, 0x00, 0x00, 0x00, 0x54, 0xe6, 0xff, 0xff,
  0x61, 0x00, 0x00, 0x00, 0x73, 0x65, 0x71, 0x75, 0x65, 0x6e, 0x74, 0x69,
  0x61, 0x6c, 0x5f, 0x32, 0x2f, 0x6d, 0x61, 0x78, 0x5f, 0x70, 0x6f, 0x6f,
  0x6c, 0x69, 0x6e, 0x67, 0x32, 0x64, 0x5f, 0x39, 0x2f, 0x4d, 0x61, 0x78,
  0x50, 0x6f, 0x6f, 0x6c, 0x3b, 0x53, 0x74, 0x61, 0x74, 0x65, 0x66, 0x75,
  0x6c, 0x50, 0x61, 0x72, 0x74, 0x69, 0x74, 0x69, 0x6f, 0x6e, 0x65, 0x64,
  0x43, 0x61, 0x6c, 0x6c, 0x2f, 0x73, 0x65, 0x71, 0x75, 0x65, 0x6e, 0x74,
  0x69, 0x61, 0x6c, 0x5f, 0x32, 0x2f, 0x6d, 0x61, 0x78, 0x5f, 0x70, 0x6f,
  0x6f, 0x6c, 0x69, 0x6e, 0x67, 0x32, 0x64, 0x5f, 0x39, 0x2f, 0x4d, 0x61,
  0x78, 0x50, 0x6f, 0x6f, 0x6c, 0x00, 0x00, 0x00, 0x04, 0x00, 0x00, 0x00,
  0x01, 0x00, 0x00, 0x00, 0x02, 0x00, 0x00, 0x00, 0x02, 0x00, 0x00, 0x00,
  0x06, 0x00, 0x00, 0x00, 0x94, 0xe7, 0xff, 0xff, 0x88, 0x01, 0x00, 0x00,
  0x21, 0x00, 0x00, 0x00, 0x24, 0x00, 0x00, 0x00, 0x1c, 0x00, 0x00, 0x00,
  0x04, 0x00, 0x00, 0x00, 0x04, 0x00, 0x00, 0x00, 0xff, 0xff, 0xff, 0xff,
  0x05, 0x00, 0x00, 0x00, 0x05, 0x00, 0x00, 0x00, 0x06, 0x00, 0x00, 0x00,
  0x00, 0xe7, 0xff, 0xff, 0x54, 0x01, 0x00, 0x00, 0x73, 0x65, 0x71, 0x75,
  0x65, 0x6e, 0x74, 0x69, 0x61, 0x6c, 0x5f, 0x32, 0x2f, 0x73, 0x65, 0x70,
  0x61, 0x72, 0x61, 0x62, 0x6c, 0x65, 0x5f, 0x63, 0x6f, 0x6e, 0x76, 0x32,
  0x64, 0x5f, 0x31, 0x30, 0x2f, 0x52, 0x65, 0x6c, 0x75, 0x3b, 0x53, 0x74,
  0x61, 0x74, 0x65, 0x66, 0x75, 0x6c, 0x50, 0x61, 0x72, 0x74, 0x69, 0x74,
  0x69, 0x6f, 0x6e, 0x65, 0x64, 0x43, 0x61, 0x6c, 0x6c, 0x2f, 0x73, 0x65,
  0x71, 0x75, 0x65, 0x6e, 0x74, 0x69, 0x61, 0x6c, 0x5f, 0x32, 0x2f, 0x73,
  0x65, 0x70, 0x61, 0x72, 0x61, 0x62, 0x6c, 0x65, 0x5f, 0x63, 0x6f, 0x6e,
  0x76, 0x32, 0x64, 0x5f, 0x31, 0x30, 0x2f, 0x52, 0x65, 0x6c, 0x75, 0x3b,
  0x73, 0x65, 0x71, 0x75, 0x65, 0x6e, 0x74, 0x69, 0x61, 0x6c, 0x5f, 0x32,
  0x2f, 0x73, 0x65, 0x70, 0x61, 0x72, 0x61, 0x62, 0x6c, 0x65, 0x5f, 0x63,
  0x6f, 0x6e, 0x76, 0x32, 0x64, 0x5f, 0x31, 0x30, 0x2f, 0x42, 0x69, 0x61,
  0x73, 0x41, 0x64, 0x64, 0x3b, 0x53, 0x74, 0x61, 0x74, 0x65, 0x66, 0x75,
  0x6c, 0x50, 0x61, 0x72, 0x74, 0x69, 0x74, 0x69, 0x6f, 0x6e, 0x65, 0x64,
  0x43, 0x61, 0x6c, 0x6c, 0x2f, 0x73, 0x65, 0x71, 0x75, 0x65, 0x6e, 0x74,
  0x69, 0x61, 0x6c, 0x5f, 0x32, 0x2f, 0x73, 0x65, 0x70, 0x61, 0x72, 0x61,
  0x62, 0x6c, 0x65, 0x5f, 0x63, 0x6f, 0x6e, 0x76, 0x32, 0x64, 0x5f, 0x31,
  0x30, 0x2f, 0x42, 0x69, 0x61, 0x73, 0x41, 0x64, 0x64, 0x3b, 0x73, 0x65,
  0x71, 0x75, 0x65, 0x6e, 0x74, 0x69, 0x61, 0x6c, 0x5f, 0x32, 0x2f, 0x73,
  0x65, 0x70, 0x61, 0x72, 0x61, 0x62, 0x6c, 0x65, 0x5f, 0x63, 0x6f, 0x6e,
  0x76, 0x32, 0x64, 0x5f, 0x31, 0x30, 0x2f, 0x73, 0x65, 0x70, 0x61, 0x72,
  0x61, 0x62, 0x6c, 0x65, 0x5f, 0x63, 0x6f, 0x6e, 0x76, 0x32, 0x64, 0x3b,
  0x53, 0x74, 0x61, 0x74, 0x65, 0x66, 0x75, 0x6c, 0x50, 0x61, 0x72, 0x74,
  0x69, 0x74, 0x69, 0x6f, 0x6e, 0x65, 0x64, 0x43, 0x61, 0x6c, 0x6c, 0x2f,
  0x73, 0x65, 0x71, 0x75, 0x65, 0x6e, 0x74, 0x69, 0x61, 0x6c, 0x5f, 0x32,
  0x2f, 0x73, 0x65, 0x70, 0x61, 0x72, 0x61, 0x62, 0x6c, 0x65, 0x5f, 0x63,
  0x6f, 0x6e, 0x76, 0x32, 0x64, 0x5f, 0x31, 0x30, 0x2f, 0x73, 0x65, 0x70,
  0x61, 0x72, 0x61, 0x62, 0x6c, 0x65, 0x5f, 0x63, 0x6f, 0x6e, 0x76, 0x32,
  0x64, 0x3b, 0x75, 0x6e, 0x6b, 0x6e, 0x6f, 0x77, 0x6e, 0x5f, 0x31, 0x35,
  0x00, 0x00, 0x00, 0x00, 0x04, 0x00, 0x00, 0x00, 0x01, 0x00, 0x00, 0x00,
  0x05, 0x00, 0x00, 0x00, 0x05, 0x00, 0x00, 0x00, 0x06, 0x00, 0x00, 0x00,
  0x34, 0xe9, 0xff, 0xff, 0xc4, 0x00, 0x00, 0x00, 0x20, 0x00, 0x00, 0x00,
  0x24, 0x00, 0x00, 0x00, 0x1c, 0x00, 0x00, 0x00, 0x04, 0x00, 0x00, 0x00,
  0x04, 0x00, 0x00, 0x00, 0xff, 0xff, 0xff, 0xff, 0x05, 0x00, 0x00, 0x00,
  0x05, 0x00, 0x00, 0x00, 0x03, 0x00, 0x00, 0x00, 0xa0, 0xe8, 0xff, 0xff,
  0x90, 0x00, 0x00, 0x00, 0x73, 0x65, 0x71, 0x75, 0x65, 0x6e, 0x74, 0x69,
  0x61, 0x6c, 0x5f, 0x32, 0x2f, 0x73, 0x65, 0x70, 0x61, 0x72, 0x61, 0x62,
  0x6c, 0x65, 0x5f, 0x63, 0x6f, 0x6e, 0x76, 0x32, 0x64, 0x5f, 0x31, 0x30,
  0x2f, 0x73, 0x65, 0x70, 0x61, 0x72, 0x61, 0x62, 0x6c, 0x65, 0x5f, 0x63,
  0x6f, 0x6e, 0x76, 0x32, 0x64, 0x2f, 0x64, 0x65, 0x70, 0x74, 0x68, 0x77,
  0x69, 0x73, 0x65, 0x3b, 0x53, 0x74, 0x61, 0x74, 0x65, 0x66, 0x75, 0x6c,
  0x50, 0x61, 0x72, 0x74, 0x69, 0x74, 0x69, 0x6f, 0x6e, 0x65, 0x64, 0x43,
  0x61, 0x6c, 0x6c, 0x2f, 0x73, 0x65, 0x71, 0x75, 0x65, 0x6e, 0x74, 0x69,
  0x61, 0x6c, 0x5f, 0x32, 0x2f, 0x73, 0x65, 0x70, 0x61, 0x72, 0x61, 0x62,
  0x6c, 0x65, 0x5f, 0x63, 0x6f, 0x6e, 0x76, 0x32, 0x64, 0x5f, 0x31, 0x30,
  0x2f, 0x73, 0x65, 0x70, 0x61, 0x72, 0x61, 0x62, 0x6c, 0x65, 0x5f, 0x63,
  0x6f, 0x6e, 0x76, 0x32, 0x64, 0x2f, 0x64, 0x65, 0x70, 0x74, 0x68, 0x77,
  0x69, 0x73, 0x65, 0x32, 0x00, 0x00, 0x00, 0x00, 0x04, 0x00, 0x00, 0x00,
  0x01, 0x00, 0x00, 0x00, 0x05, 0x00, 0x00, 0x00, 0x05, 0x00, 0x00, 0x00,
  0x03, 0x00, 0x00, 0x00, 0x10, 0xea, 0xff, 0xff, 0xb4, 0x00, 0x00, 0x00,
  0x1f, 0x00, 0x00, 0x00, 0x24, 0x00, 0x00, 0x00, 0x1c, 0x00, 0x00, 0x00,
  0x04, 0x00, 0x00, 0x00, 0x04, 0x00, 0x00, 0x00, 0xff, 0xff, 0xff, 0xff,
  0x07, 0x00, 0x00, 0x00, 0x07, 0x00, 0x00, 0x00, 0x03, 0x00, 0x00, 0x00,
  0x7c, 0xe9, 0xff, 0xff, 0x80, 0x00, 0x00, 0x00, 0x73, 0x65, 0x71, 0x75,
  0x65, 0x6e, 0x74, 0x69, 0x61, 0x6c, 0x5f, 0x32, 0x2f, 0x62, 0x61, 0x74,
  0x63, 0x68, 0x5f, 0x6e, 0x6f, 0x72, 0x6d, 0x61, 0x6c, 0x69, 0x7a, 0x61,
  0x74, 0x69, 0x6f, 0x6e, 0x5f, 0x38, 0x2f, 0x46, 0x75, 0x73, 0x65, 0x64,
  0x42, 0x61, 0x74, 0x63, 0x68, 0x4e, 0x6f, 0x72, 0x6d, 0x56, 0x33, 0x3b,
  0x53, 0x74, 0x61, 0x74, 0x65, 0x66, 0x75, 0x6c, 0x50, 0x61, 0x72, 0x74,
  0x69, 0x74, 0x69, 0x6f, 0x6e, 0x65, 0x64, 0x43, 0x61, 0x6c, 0x6c, 0x2f,
  0x73, 0x65, 0x71, 0x75, 0x65, 0x6e, 0x74, 0x69, 0x61, 0x6c, 0x5f, 0x32,
  0x2f, 0x62, 0x61, 0x74, 0x63, 0x68, 0x5f, 0x6e, 0x6f, 0x72, 0x6d, 0x61,
  0x6c, 0x69, 0x7a, 0x61, 0x74, 0x69, 0x6f, 0x6e, 0x5f, 0x38, 0x2f, 0x46,
  0x75, 0x73, 0x65, 0x64, 0x42, 0x61, 0x74, 0x63, 0x68, 0x4e, 0x6f, 0x72,
  0x6d, 0x56, 0x33, 0x33, 0x00, 0x00, 0x00, 0x00, 0x04, 0x00, 0x00, 0x00,
  0x01, 0x00, 0x00, 0x00, 0x07, 0x00, 0x00, 0x00, 0x07, 0x00, 0x00, 0x00,
  0x03, 0x00, 0x00, 0x00, 0xdc, 0xea, 0xff, 0xff, 0xb4, 0x00, 0x00, 0x00,
  0x1e, 0x00, 0x00, 0x00, 0x24, 0x00, 0x00, 0x00, 0x1c, 0x00, 0x00, 0x00,
  0x04, 0x00, 0x00, 0x00, 0x04, 0x00, 0x00, 0x00, 0xff, 0xff, 0xff, 0xff,
  0x07, 0x00, 0x00, 0x00, 0x07, 0x00, 0x00, 0x00, 0x03, 0x00, 0x00, 0x00,
  0x48, 0xea, 0xff, 0xff, 0x80, 0x00, 0x00, 0x00, 0x73, 0x65, 0x71, 0x75,
  0x65, 0x6e, 0x74, 0x69, 0x61, 0x6c, 0x5f, 0x32, 0x2f, 0x62, 0x61, 0x74,
  0x63, 0x68, 0x5f, 0x6e, 0x6f, 0x72, 0x6d, 0x61, 0x6c, 0x69, 0x7a, 0x61,
  0x74, 0x69, 0x6f, 0x6e, 0x5f, 0x38, 0x2f, 0x46, 0x75, 0x73, 0x65, 0x64,
  0x42, 0x61, 0x74, 0x63, 0x68, 0x4e, 0x6f, 0x72, 0x6d, 0x56, 0x33, 0x3b,
  0x53, 0x74, 0x61, 0x74, 0x65, 0x66, 0x75, 0x6c, 0x50, 0x61, 0x72, 0x74,
  0x69, 0x74, 0x69, 0x6f, 0x6e, 0x65, 0x64, 0x43, 0x61, 0x6c, 0x6c, 0x2f,
  0x73, 0x65, 0x71, 0x75, 0x65, 0x6e, 0x74, 0x69, 0x61, 0x6c, 0x5f, 0x32,
  0x2f, 0x62, 0x61, 0x74, 0x63, 0x68, 0x5f, 0x6e, 0x6f, 0x72, 0x6d, 0x61,
  0x6c, 0x69, 0x7a, 0x61, 0x74, 0x69, 0x6f, 0x6e, 0x5f, 0x38, 0x2f, 0x46,
  0x75, 0x73, 0x65, 0x64, 0x42, 0x61, 0x74, 0x63, 0x68, 0x4e, 0x6f, 0x72,
  0x6d, 0x56, 0x33, 0x32, 0x00, 0x00, 0x00, 0x00, 0x04, 0x00, 0x00, 0x00,
  0x01, 0x00, 0x00, 0x00, 0x07, 0x00, 0x00, 0x00, 0x07, 0x00, 0x00, 0x00,
  0x03, 0x00, 0x00, 0x00, 0xa8, 0xeb, 0xff, 0xff, 0x94, 0x00, 0x00, 0x00,
  0x1d, 0x00, 0x00, 0x00, 0x24, 0x00, 0x00, 0x00, 0x1c, 0x00, 0x00, 0x00,
  0x04, 0x00, 0x00, 0x00, 0x04, 0x00, 0x00, 0x00, 0xff, 0xff, 0xff, 0xff,
  0x07, 0x00, 0x00, 0x00, 0x07, 0x00, 0x00, 0x00, 0x03, 0x00, 0x00, 0x00,
  0x14, 0xeb, 0xff, 0xff, 0x61, 0x00, 0x00, 0x00, 0x73, 0x65, 0x71, 0x75,
  0x65, 0x6e, 0x74, 0x69, 0x61, 0x6c, 0x5f, 0x32, 0x2f, 0x6d, 0x61, 0x78,
  0x5f, 0x70, 0x6f, 0x6f, 0x6c, 0x69, 0x6e, 0x67, 0x32, 0x64, 0x5f, 0x38,
  0x2f, 0x4d, 0x61, 0x78, 0x50, 0x6f, 0x6f, 0x6c, 0x3b, 0x53, 0x74, 0x61,
  0x74, 0x65, 0x66, 0x75, 0x6c, 0x50, 0x61, 0x72, 0x74, 0x69, 0x74, 0x69,
  0x6f, 0x6e, 0x65, 0x64, 0x43, 0x61, 0x6c, 0x6c, 0x2f, 0x73, 0x65, 0x71,
  0x75, 0x65, 0x6e, 0x74, 0x69, 0x61, 0x6c, 0x5f, 0x32, 0x2f, 0x6d, 0x61,
  0x78, 0x5f, 0x70, 0x6f, 0x6f, 0x6c, 0x69, 0x6e, 0x67, 0x32, 0x64, 0x5f,
  0x38, 0x2f, 0x4d, 0x61, 0x78, 0x50, 0x6f, 0x6f, 0x6c, 0x00, 0x00, 0x00,
  0x04, 0x00, 0x00, 0x00, 0x01, 0x00, 0x00, 0x00, 0x07, 0x00, 0x00, 0x00,
  0x07, 0x00, 0x00, 0x00, 0x03, 0x00, 0x00, 0x00, 0x54, 0xec, 0xff, 0xff,
  0x10, 0x02, 0x00, 0x00, 0x1c, 0x00, 0x00, 0x00, 0x24, 0x00, 0x00, 0x00,
  0x1c, 0x00, 0x00, 0x00, 0x04, 0x00, 0x00, 0x00, 0x04, 0x00, 0x00, 0x00,
  0xff, 0xff, 0xff, 0xff, 0x15, 0x00, 0x00, 0x00, 0x15, 0x00, 0x00, 0x00,
  0x03, 0x00, 0x00, 0x00, 0xc0, 0xeb, 0xff, 0xff, 0xdd, 0x01, 0x00, 0x00,
  0x73, 0x65, 0x71, 0x75, 0x65, 0x6e, 0x74, 0x69, 0x61, 0x6c, 0x5f, 0x32,
  0x2f, 0x73, 0x65, 0x70, 0x61, 0x72, 0x61, 0x62, 0x6c, 0x65, 0x5f, 0x63,
  0x6f, 0x6e, 0x76, 0x32, 0x64, 0x5f, 0x39, 0x2f, 0x52, 0x65, 0x6c, 0x75,
  0x3b, 0x53, 0x74, 0x61, 0x74, 0x65, 0x66, 0x75, 0x6c, 0x50, 0x61, 0x72,
  0x74, 0x69, 0x74, 0x69, 0x6f, 0x6e, 0x65, 0x64, 0x43, 0x61, 0x6c, 0x6c,
  0x2f, 0x73, 0x65, 0x71, 0x75, 0x65, 0x6e, 0x74, 0x69, 0x61, 0x6c, 0x5f,
  0x32, 0x2f, 0x73, 0x65, 0x70, 0x61, 0x72, 0x61, 0x62, 0x6c, 0x65, 0x5f,
  0x63, 0x6f, 0x6e, 0x76, 0x32, 0x64, 0x5f, 0x39, 0x2f, 0x52, 0x65, 0x6c,
  0x75, 0x3b, 0x73, 0x65, 0x71, 0x75, 0x65, 0x6e, 0x74, 0x69, 0x61, 0x6c,
  0x5f, 0x32, 0x2f, 0x73, 0x65, 0x70, 0x61, 0x72, 0x61, 0x62, 0x6c, 0x65,
  0x5f, 0x63, 0x6f, 0x6e, 0x76, 0x32, 0x64, 0x5f, 0x39, 0x2f, 0x42, 0x69,
  0x61, 0x73, 0x41, 0x64, 0x64, 0x3b, 0x53, 0x74, 0x61, 0x74, 0x65, 0x66,
  0x75, 0x6c, 0x50, 0x61, 0x72, 0x74, 0x69, 0x74, 0x69, 0x6f, 0x6e, 0x65,
  0x64, 0x43, 0x61, 0x6c, 0x6c, 0x2f, 0x73, 0x65, 0x71, 0x75, 0x65, 0x6e,
  0x74, 0x69, 0x61, 0x6c, 0x5f, 0x32, 0x2f, 0x73, 0x65, 0x70, 0x61, 0x72,
  0x61, 0x62, 0x6c, 0x65, 0x5f, 0x63, 0x6f, 0x6e, 0x76, 0x32, 0x64, 0x5f,
  0x39, 0x2f, 0x42, 0x69, 0x61, 0x73, 0x41, 0x64, 0x64, 0x3b, 0x73, 0x65,
  0x71, 0x75, 0x65, 0x6e, 0x74, 0x69, 0x61, 0x6c, 0x5f, 0x32, 0x2f, 0x73,
  0x65, 0x70, 0x61, 0x72, 0x61, 0x62, 0x6c, 0x65, 0x5f, 0x63, 0x6f, 0x6e,
  0x76, 0x32, 0x64, 0x5f, 0x31, 0x30, 0x2f, 0x73, 0x65, 0x70, 0x61, 0x72,
  0x61, 0x62, 0x6c, 0x65, 0x5f, 0x63, 0x6f, 0x6e, 0x76, 0x32, 0x64, 0x2f,
  0x64, 0x65, 0x70, 0x74, 0x68, 0x77, 0x69, 0x73, 0x65, 0x3b, 0x53, 0x74,
  0x61, 0x74, 0x65, 0x66, 0x75, 0x6c, 0x50, 0x61, 0x72, 0x74, 0x69, 0x74,
  0x69, 0x6f, 0x6e, 0x65, 0x64, 0x43, 0x61, 0x6c, 0x6c, 0x2f, 0x73, 0x65,
  0x71, 0x75, 0x65, 0x6e, 0x74, 0x69, 0x61, 0x6c, 0x5f, 0x32, 0x2f, 0x73,
  0x65, 0x70, 0x61, 0x72, 0x61, 0x62, 0x6c, 0x65, 0x5f, 0x63, 0x6f, 0x6e,
  0x76, 0x32, 0x64, 0x5f, 0x31, 0x30, 0x2f, 0x73, 0x65, 0x70, 0x61, 0x72,
  0x61, 0x62, 0x6c, 0x65, 0x5f, 0x63, 0x6f, 0x6e, 0x76, 0x32, 0x64, 0x2f,
  0x64, 0x65, 0x70, 0x74, 0x68, 0x77, 0x69, 0x73, 0x65, 0x3b, 0x73, 0x65,
  0x71, 0x75, 0x65, 0x6e, 0x74, 0x69, 0x61, 0x6c, 0x5f, 0x32, 0x2f, 0x73,
  0x65, 0x70, 0x61, 0x72, 0x61, 0x62, 0x6c, 0x65, 0x5f, 0x63, 0x6f, 0x6e,
  0x76, 0x32, 0x64, 0x5f, 0x39, 0x2f, 0x73, 0x65, 0x70, 0x61, 0x72, 0x61,
  0x62, 0x6c, 0x65, 0x5f, 0x63, 0x6f, 0x6e, 0x76, 0x32, 0x64, 0x3b, 0x53,
  0x74, 0x61, 0x74, 0x65, 0x66, 0x75, 0x6c, 0x50, 0x61, 0x72, 0x74, 0x69,
  0x74, 0x69, 0x6f, 0x6e, 0x65, 0x64, 0x43, 0x61, 0x6c, 0x6c, 0x2f, 0x73,
  0x65, 0x71, 0x75, 0x65, 0x6e, 0x74, 0x69, 0x61, 0x6c, 0x5f, 0x32, 0x2f,
  0x73, 0x65, 0x70, 0x61, 0x72, 0x61, 0x62, 0x6c, 0x65, 0x5f, 0x63, 0x6f,
  0x6e, 0x76, 0x32, 0x64, 0x5f, 0x39, 0x2f, 0x73, 0x65, 0x70, 0x61, 0x72,
  0x61, 0x62, 0x6c, 0x65, 0x5f, 0x63, 0x6f, 0x6e, 0x76, 0x32, 0x64, 0x3b,
  0x75, 0x6e, 0x6b, 0x6e, 0x6f, 0x77, 0x6e, 0x5f, 0x38, 0x00, 0x00, 0x00,
  0x04, 0x00, 0x00, 0x00, 0x01, 0x00, 0x00, 0x00, 0x15, 0x00, 0x00, 0x00,
  0x15, 0x00, 0x00, 0x00, 0x03, 0x00, 0x00, 0x00, 0x7c, 0xee, 0xff, 0xff,
  0xc0, 0x00, 0x00, 0x00, 0x1b, 0x00, 0x00, 0x00, 0x24, 0x00, 0x00, 0x00,
  0x1c, 0x00, 0x00, 0x00, 0x04, 0x00, 0x00, 0x00, 0x04, 0x00, 0x00, 0x00,
  0xff, 0xff, 0xff, 0xff, 0x15, 0x00, 0x00, 0x00, 0x15, 0x00, 0x00, 0x00,
  0x03, 0x00, 0x00, 0x00, 0xe8, 0xed, 0xff, 0xff, 0x8e, 0x00, 0x00, 0x00,
  0x73, 0x65, 0x71, 0x75, 0x65, 0x6e, 0x74, 0x69, 0x61, 0x6c, 0x5f, 0x32,
  0x2f, 0x73, 0x65, 0x70, 0x61, 0x72, 0x61, 0x62, 0x6c, 0x65, 0x5f, 0x63,
  0x6f, 0x6e, 0x76, 0x32, 0x64, 0x5f, 0x39, 0x2f, 0x73, 0x65, 0x70, 0x61,
  0x72, 0x61, 0x62, 0x6c, 0x65, 0x5f, 0x63, 0x6f, 0x6e, 0x76, 0x32, 0x64,
  0x2f, 0x64, 0x65, 0x70, 0x74, 0x68, 0x77, 0x69, 0x73, 0x65, 0x3b, 0x53,
  0x74, 0x61, 0x74, 0x65, 0x66, 0x75, 0x6c, 0x50, 0x61, 0x72, 0x74, 0x69,
  0x74, 0x69, 0x6f, 0x6e, 0x65, 0x64, 0x43, 0x61, 0x6c, 0x6c, 0x2f, 0x73,
  0x65, 0x71, 0x75, 0x65, 0x6e, 0x74, 0x69, 0x61, 0x6c, 0x5f, 0x32, 0x2f,
  0x73, 0x65, 0x70, 0x61, 0x72, 0x61, 0x62, 0x6c, 0x65, 0x5f, 0x63, 0x6f,
  0x6e, 0x76, 0x32, 0x64, 0x5f, 0x39, 0x2f, 0x73, 0x65, 0x70, 0x61, 0x72,
  0x61, 0x62, 0x6c, 0x65, 0x5f, 0x63, 0x6f, 0x6e, 0x76, 0x32, 0x64, 0x2f,
  0x64, 0x65, 0x70, 0x74, 0x68, 0x77, 0x69, 0x73, 0x65, 0x31, 0x00, 0x00,
  0x04, 0x00, 0x00, 0x00, 0x01, 0x00, 0x00, 0x00, 0x15, 0x00, 0x00, 0x00,
  0x15, 0x00, 0x00, 0x00, 0x03, 0x00, 0x00, 0x00, 0x54, 0xef, 0xff, 0xff,
  0xb4, 0x00, 0x00, 0x00, 0x1a, 0x00, 0x00, 0x00, 0x24, 0x00, 0x00, 0x00,
  0x1c, 0x00, 0x00, 0x00, 0x04, 0x00, 0x00, 0x00, 0x04, 0x00, 0x00, 0x00,
  0xff, 0xff, 0xff, 0xff, 0x17, 0x00, 0x00, 0x00, 0x17, 0x00, 0x00, 0x00,
  0x03, 0x00, 0x00, 0x00, 0xc0, 0xee, 0xff, 0xff, 0x80, 0x00, 0x00, 0x00,
  0x73, 0x65, 0x71, 0x75, 0x65, 0x6e, 0x74, 0x69, 0x61, 0x6c, 0x5f, 0x32,
  0x2f, 0x62, 0x61, 0x74, 0x63, 0x68, 0x5f, 0x6e, 0x6f, 0x72, 0x6d, 0x61,
  0x6c, 0x69, 0x7a, 0x61, 0x74, 0x69, 0x6f, 0x6e, 0x5f, 0x37, 0x2f, 0x46,
  0x75, 0x73, 0x65, 0x64, 0x42, 0x61, 0x74, 0x63, 0x68, 0x4e, 0x6f, 0x72,
  0x6d, 0x56, 0x33, 0x3b, 0x53, 0x74, 0x61, 0x74, 0x65, 0x66, 0x75, 0x6c,
  0x50, 0x61, 0x72, 0x74, 0x69, 0x74, 0x69, 0x6f, 0x6e, 0x65, 0x64, 0x43,
  0x61, 0x6c, 0x6c, 0x2f, 0x73, 0x65, 0x71, 0x75, 0x65, 0x6e, 0x74, 0x69,
  0x61, 0x6c, 0x5f, 0x32, 0x2f, 0x62, 0x61, 0x74, 0x63, 0x68, 0x5f, 0x6e,
  0x6f, 0x72, 0x6d, 0x61, 0x6c, 0x69, 0x7a, 0x61, 0x74, 0x69, 0x6f, 0x6e,
  0x5f, 0x37, 0x2f, 0x46, 0x75, 0x73, 0x65, 0x64, 0x42, 0x61, 0x74, 0x63,
  0x68, 0x4e, 0x6f, 0x72, 0x6d, 0x56, 0x33, 0x33, 0x00, 0x00, 0x00, 0x00,
  0x04, 0x00, 0x00, 0x00, 0x01, 0x00, 0x00, 0x00, 0x17, 0x00, 0x00, 0x00,
  0x17, 0x00, 0x00, 0x00, 0x03, 0x00, 0x00, 0x00, 0x20, 0xf0, 0xff, 0xff,
  0xb4, 0x00, 0x00, 0x00, 0x19, 0x00, 0x00, 0x00, 0x24, 0x00, 0x00, 0x00,
  0x1c, 0x00, 0x00, 0x00, 0x04, 0x00, 0x00, 0x00, 0x04, 0x00, 0x00, 0x00,
  0xff, 0xff, 0xff, 0xff, 0x17, 0x00, 0x00, 0x00, 0x17, 0x00, 0x00, 0x00,
  0x03, 0x00, 0x00, 0x00, 0x8c, 0xef, 0xff, 0xff, 0x80, 0x00, 0x00, 0x00,
  0x73, 0x65, 0x71, 0x75, 0x65, 0x6e, 0x74, 0x69, 0x61, 0x6c, 0x5f, 0x32,
  0x2f, 0x62, 0x61, 0x74, 0x63, 0x68, 0x5f, 0x6e, 0x6f, 0x72, 0x6d, 0x61,
  0x6c, 0x69, 0x7a, 0x61, 0x74, 0x69, 0x6f, 0x6e, 0x5f, 0x37, 0x2f, 0x46,
  0x75, 0x73, 0x65, 0x64, 0x42, 0x61, 0x74, 0x63, 0x68, 0x4e, 0x6f, 0x72,
  0x6d, 0x56, 0x33, 0x3b, 0x53, 0x74, 0x61, 0x74, 0x65, 0x66, 0x75, 0x6c,
  0x50, 0x61, 0x72, 0x74, 0x69, 0x74, 0x69, 0x6f, 0x6e, 0x65, 0x64, 0x43,
  0x61, 0x6c, 0x6c, 0x2f, 0x73, 0x65, 0x71, 0x75, 0x65, 0x6e, 0x74, 0x69,
  0x61, 0x6c, 0x5f, 0x32, 0x2f, 0x62, 0x61, 0x74, 0x63, 0x68, 0x5f, 0x6e,
  0x6f, 0x72, 0x6d, 0x61, 0x6c, 0x69, 0x7a, 0x61, 0x74, 0x69, 0x6f, 0x6e,
  0x5f, 0x37, 0x2f, 0x46, 0x75, 0x73, 0x65, 0x64, 0x42, 0x61, 0x74, 0x63,
  0x68, 0x4e, 0x6f, 0x72, 0x6d, 0x56, 0x33, 0x32, 0x00, 0x00, 0x00, 0x00,
  0x04, 0x00, 0x00, 0x00, 0x01, 0x00, 0x00, 0x00, 0x17, 0x00, 0x00, 0x00,
  0x17, 0x00, 0x00, 0x00, 0x03, 0x00, 0x00, 0x00, 0xec, 0xf0, 0xff, 0xff,
  0x94, 0x00, 0x00, 0x00, 0x18, 0x00, 0x00, 0x00, 0x24, 0x00, 0x00, 0x00,
  0x1c, 0x00, 0x00, 0x00, 0x04, 0x00, 0x00, 0x00, 0x04, 0x00, 0x00, 0x00,
  0xff, 0xff, 0xff, 0xff, 0x17, 0x00, 0x00, 0x00, 0x17, 0x00, 0x00, 0x00,
  0x03, 0x00, 0x00, 0x00, 0x58, 0xf0, 0xff, 0xff, 0x61, 0x00, 0x00, 0x00,
  0x73, 0x65, 0x71, 0x75, 0x65, 0x6e, 0x74, 0x69, 0x61, 0x6c, 0x5f, 0x32,
  0x2f, 0x6d, 0x61, 0x78, 0x5f, 0x70, 0x6f, 0x6f, 0x6c, 0x69, 0x6e, 0x67,
  0x32, 0x64, 0x5f, 0x37, 0x2f, 0x4d, 0x61, 0x78, 0x50, 0x6f, 0x6f, 0x6c,
  0x3b, 0x53, 0x74, 0x61, 0x74, 0x65, 0x66, 0x75, 0x6c, 0x50, 0x61, 0x72,
  0x74, 0x69, 0x74, 0x69, 0x6f, 0x6e, 0x65, 0x64, 0x43, 0x61, 0x6c, 0x6c,
  0x2f, 0x73, 0x65, 0x71, 0x75, 0x65, 0x6e, 0x74, 0x69, 0x61, 0x6c, 0x5f,
  0x32, 0x2f, 0x6d, 0x61, 0x78, 0x5f, 0x70, 0x6f, 0x6f, 0x6c, 0x69, 0x6e,
  0x67, 0x32, 0x64, 0x5f, 0x37, 0x2f, 0x4d, 0x61, 0x78, 0x50, 0x6f, 0x6f,
  0x6c, 0x00, 0x00, 0x00, 0x04, 0x00, 0x00, 0x00, 0x01, 0x00, 0x00, 0x00,
  0x17, 0x00, 0x00, 0x00, 0x17, 0x00, 0x00, 0x00, 0x03, 0x00, 0x00, 0x00,
  0x98, 0xf1, 0xff, 0xff, 0x10, 0x02, 0x00, 0x00, 0x17, 0x00, 0x00, 0x00,
  0x24, 0x00, 0x00, 0x00, 0x1c, 0x00, 0x00, 0x00, 0x04, 0x00, 0x00, 0x00,
  0x04, 0x00, 0x00, 0x00, 0xff, 0xff, 0xff, 0xff, 0x5e, 0x00, 0x00, 0x00,
  0x5e, 0x00, 0x00, 0x00, 0x03, 0x00, 0x00, 0x00, 0x04, 0xf1, 0xff, 0xff,
  0xdd, 0x01, 0x00, 0x00, 0x73, 0x65, 0x71, 0x75, 0x65, 0x6e, 0x74, 0x69,
  0x61, 0x6c, 0x5f, 0x32, 0x2f, 0x73, 0x65, 0x70, 0x61, 0x72, 0x61, 0x62,
  0x6c, 0x65, 0x5f, 0x63, 0x6f, 0x6e, 0x76, 0x32, 0x64, 0x5f, 0x38, 0x2f,
  0x52, 0x65, 0x6c, 0x75, 0x3b, 0x53, 0x74, 0x61, 0x74, 0x65, 0x66, 0x75,
  0x6c, 0x50, 0x61, 0x72, 0x74, 0x69, 0x74, 0x69, 0x6f, 0x6e, 0x65, 0x64,
  0x43, 0x61, 0x6c, 0x6c, 0x2f, 0x73, 0x65, 0x71, 0x75, 0x65, 0x6e, 0x74,
  0x69, 0x61, 0x6c, 0x5f, 0x32, 0x2f, 0x73, 0x65, 0x70, 0x61, 0x72, 0x61,
  0x62, 0x6c, 0x65, 0x5f, 0x63, 0x6f, 0x6e, 0x76, 0x32, 0x64, 0x5f, 0x38,
  0x2f, 0x52, 0x65, 0x6c, 0x75, 0x3b, 0x73, 0x65, 0x71, 0x75, 0x65, 0x6e,
  0x74, 0x69, 0x61, 0x6c, 0x5f, 0x32, 0x2f, 0x73, 0x65, 0x70, 0x61, 0x72,
  0x61, 0x62, 0x6c, 0x65, 0x5f, 0x63, 0x6f, 0x6e, 0x76, 0x32, 0x64, 0x5f,
  0x38, 0x2f, 0x42, 0x69, 0x61, 0x73, 0x41, 0x64, 0x64, 0x3b, 0x53, 0x74,
  0x61, 0x74, 0x65, 0x66, 0x75, 0x6c, 0x50, 0x61, 0x72, 0x74, 0x69, 0x74,
  0x69, 0x6f, 0x6e, 0x65, 0x64, 0x43, 0x61, 0x6c, 0x6c, 0x2f, 0x73, 0x65,
  0x71, 0x75, 0x65, 0x6e, 0x74, 0x69, 0x61, 0x6c, 0x5f, 0x32, 0x2f, 0x73,
  0x65, 0x70, 0x61, 0x72, 0x61, 0x62, 0x6c, 0x65, 0x5f, 0x63, 0x6f, 0x6e,
  0x76, 0x32, 0x64, 0x5f, 0x38, 0x2f, 0x42, 0x69, 0x61, 0x73, 0x41, 0x64,
  0x64, 0x3b, 0x73, 0x65, 0x71, 0x75, 0x65, 0x6e, 0x74, 0x69, 0x61, 0x6c,
  0x5f, 0x32, 0x2f, 0x73, 0x65, 0x70, 0x61, 0x72, 0x61, 0x62, 0x6c, 0x65,
  0x5f, 0x63, 0x6f, 0x6e, 0x76, 0x32, 0x64, 0x5f, 0x31, 0x30, 0x2f, 0x73,
  0x65, 0x70, 0x61, 0x72, 0x61, 0x62, 0x6c, 0x65, 0x5f, 0x63, 0x6f, 0x6e,
  0x76, 0x32, 0x64, 0x2f, 0x64, 0x65, 0x70, 0x74, 0x68, 0x77, 0x69, 0x73,
  0x65, 0x3b, 0x53, 0x74, 0x61, 0x74, 0x65, 0x66, 0x75, 0x6c, 0x50, 0x61,
  0x72, 0x74, 0x69, 0x74, 0x69, 0x6f, 0x6e, 0x65, 0x64, 0x43, 0x61, 0x6c,
  0x6c, 0x2f, 0x73, 0x65, 0x71, 0x75, 0x65, 0x6e, 0x74, 0x69, 0x61, 0x6c,
  0x5f, 0x32, 0x2f, 0x73, 0x65, 0x70, 0x61, 0x72, 0x61, 0x62, 0x6c, 0x65,
  0x5f, 0x63, 0x6f, 0x6e, 0x76, 0x32, 0x64, 0x5f, 0x31, 0x30, 0x2f, 0x73,
  0x65, 0x70, 0x61, 0x72, 0x61, 0x62, 0x6c, 0x65, 0x5f, 0x63, 0x6f, 0x6e,
  0x76, 0x32, 0x64, 0x2f, 0x64, 0x65, 0x70, 0x74, 0x68, 0x77, 0x69, 0x73,
  0x65, 0x3b, 0x73, 0x65, 0x71, 0x75, 0x65, 0x6e, 0x74, 0x69, 0x61, 0x6c,
  0x5f, 0x32, 0x2f, 0x73, 0x65, 0x70, 0x61, 0x72, 0x61, 0x62, 0x6c, 0x65,
  0x5f, 0x63, 0x6f, 0x6e, 0x76, 0x32, 0x64, 0x5f, 0x38, 0x2f, 0x73, 0x65,
  0x70, 0x61, 0x72, 0x61, 0x62, 0x6c, 0x65, 0x5f, 0x63, 0x6f, 0x6e, 0x76,
  0x32, 0x64, 0x3b, 0x53, 0x74, 0x61, 0x74, 0x65, 0x66, 0x75, 0x6c, 0x50,
  0x61, 0x72, 0x74, 0x69, 0x74, 0x69, 0x6f, 0x6e, 0x65, 0x64, 0x43, 0x61,
  0x6c, 0x6c, 0x2f, 0x73, 0x65, 0x71, 0x75, 0x65, 0x6e, 0x74, 0x69, 0x61,
  0x6c, 0x5f, 0x32, 0x2f, 0x73, 0x65, 0x70, 0x61, 0x72, 0x61, 0x62, 0x6c,
  0x65, 0x5f, 0x63, 0x6f, 0x6e, 0x76, 0x32, 0x64, 0x5f, 0x38, 0x2f, 0x73,
  0x65, 0x70, 0x61, 0x72, 0x61, 0x62, 0x6c, 0x65, 0x5f, 0x63, 0x6f, 0x6e,
  0x76, 0x32, 0x64, 0x3b, 0x75, 0x6e, 0x6b, 0x6e, 0x6f, 0x77, 0x6e, 0x5f,
  0x31, 0x00, 0x00, 0x00, 0x04, 0x00, 0x00, 0x00, 0x01, 0x00, 0x00, 0x00,
  0x5e, 0x00, 0x00, 0x00, 0x5e, 0x00, 0x00, 0x00, 0x03, 0x00, 0x00, 0x00,
  0xc0, 0xf3, 0xff, 0xff, 0xc0, 0x00, 0x00, 0x00, 0x16, 0x00, 0x00, 0x00,
  0x24, 0x00, 0x00, 0x00, 0x1c, 0x00, 0x00, 0x00, 0x04, 0x00, 0x00, 0x00,
  0x04, 0x00, 0x00, 0x00, 0xff, 0xff, 0xff, 0xff, 0x5e, 0x00, 0x00, 0x00,
  0x5e, 0x00, 0x00, 0x00, 0x01, 0x00, 0x00, 0x00, 0x2c, 0xf3, 0xff, 0xff,
  0x8e, 0x00, 0x00, 0x00, 0x73, 0x65, 0x71, 0x75, 0x65, 0x6e, 0x74, 0x69,
  0x61, 0x6c, 0x5f, 0x32, 0x2f, 0x73, 0x65, 0x70, 0x61, 0x72, 0x61, 0x62,
  0x6c, 0x65, 0x5f, 0x63, 0x6f, 0x6e, 0x76, 0x32, 0x64, 0x5f, 0x38, 0x2f,
  0x73, 0x65, 0x70, 0x61, 0x72, 0x61, 0x62, 0x6c, 0x65, 0x5f, 0x63, 0x6f,
  0x6e, 0x76, 0x32, 0x64, 0x2f, 0x64, 0x65, 0x70, 0x74, 0x68, 0x77, 0x69,
  0x73, 0x65, 0x3b, 0x53, 0x74, 0x61, 0x74, 0x65, 0x66, 0x75, 0x6c, 0x50,
  0x61, 0x72, 0x74, 0x69, 0x74, 0x69, 0x6f, 0x6e, 0x65, 0x64, 0x43, 0x61,
  0x6c, 0x6c, 0x2f, 0x73, 0x65, 0x71, 0x75, 0x65, 0x6e, 0x74, 0x69, 0x61,
  0x6c, 0x5f, 0x32, 0x2f, 0x73, 0x65, 0x70, 0x61, 0x72, 0x61, 0x62, 0x6c,
  0x65, 0x5f, 0x63, 0x6f, 0x6e, 0x76, 0x32, 0x64, 0x5f, 0x38, 0x2f, 0x73,
  0x65, 0x70, 0x61, 0x72, 0x61, 0x62, 0x6c, 0x65, 0x5f, 0x63, 0x6f, 0x6e,
  0x76, 0x32, 0x64, 0x2f, 0x64, 0x65, 0x70, 0x74, 0x68, 0x77, 0x69, 0x73,
  0x65, 0x32, 0x00, 0x00, 0x04, 0x00, 0x00, 0x00, 0x01, 0x00, 0x00, 0x00,
  0x5e, 0x00, 0x00, 0x00, 0x5e, 0x00, 0x00, 0x00, 0x01, 0x00, 0x00, 0x00,
  0x62, 0xf5, 0xff, 0xff, 0x94, 0x00, 0x00, 0x00, 0x15, 0x00, 0x00, 0x00,
  0x0c, 0x00, 0x00, 0x00, 0x04, 0x00, 0x00, 0x00, 0xec, 0xf3, 0xff, 0xff,
  0x7b, 0x00, 0x00, 0x00, 0x73, 0x65, 0x71, 0x75, 0x65, 0x6e, 0x74, 0x69,
  0x61, 0x6c, 0x5f, 0x32, 0x2f, 0x73, 0x65, 0x70, 0x61, 0x72, 0x61, 0x62,
  0x6c, 0x65, 0x5f, 0x63, 0x6f, 0x6e, 0x76, 0x32, 0x64, 0x5f, 0x31, 0x30,
  0x2f, 0x73, 0x65, 0x70, 0x61, 0x72, 0x61, 0x62, 0x6c, 0x65, 0x5f, 0x63,
  0x6f, 0x6e, 0x76, 0x32, 0x64, 0x3b, 0x53, 0x74, 0x61, 0x74, 0x65, 0x66,
  0x75, 0x6c, 0x50, 0x61, 0x72, 0x74, 0x69, 0x74, 0x69, 0x6f, 0x6e, 0x65,
  0x64, 0x43, 0x61, 0x6c, 0x6c, 0x2f, 0x73, 0x65, 0x71, 0x75, 0x65, 0x6e,
  0x74, 0x69, 0x61, 0x6c, 0x5f, 0x32, 0x2f, 0x73, 0x65, 0x70, 0x61, 0x72,
  0x61, 0x62, 0x6c, 0x65, 0x5f, 0x63, 0x6f, 0x6e, 0x76, 0x32, 0x64, 0x5f,
  0x31, 0x30, 0x2f, 0x73, 0x65, 0x70, 0x61, 0x72, 0x61, 0x62, 0x6c, 0x65,
  0x5f, 0x63, 0x6f, 0x6e, 0x76, 0x32, 0x64, 0x00, 0x04, 0x00, 0x00, 0x00,
  0x06, 0x00, 0x00, 0x00, 0x01, 0x00, 0x00, 0x00, 0x01, 0x00, 0x00, 0x00,
  0x03, 0x00, 0x00, 0x00, 0x0e, 0xf6, 0xff, 0xff, 0xac, 0x00, 0x00, 0x00,
  0x14, 0x00, 0x00, 0x00, 0x0c, 0x00, 0x00, 0x00, 0x04, 0x00, 0x00, 0x00,
  0x98, 0xf4, 0xff, 0xff, 0x90, 0x00, 0x00, 0x00, 0x73, 0x65, 0x71, 0x75,
  0x65, 0x6e, 0x74, 0x69, 0x61, 0x6c, 0x5f, 0x32, 0x2f, 0x73, 0x65, 0x70,
  0x61, 0x72, 0x61, 0x62, 0x6c, 0x65, 0x5f, 0x63, 0x6f, 0x6e, 0x76, 0x32,
  0x64, 0x5f, 0x31, 0x30, 0x2f, 0x73, 0x65, 0x70, 0x61, 0x72, 0x61, 0x62,
  0x6c, 0x65, 0x5f, 0x63, 0x6f, 0x6e, 0x76, 0x32, 0x64, 0x2f, 0x64, 0x65,
  0x70, 0x74, 0x68, 0x77, 0x69, 0x73, 0x65, 0x3b, 0x53, 0x74, 0x61, 0x74,
  0x65, 0x66, 0x75, 0x6c, 0x50, 0x61, 0x72, 0x74, 0x69, 0x74, 0x69, 0x6f,
  0x6e, 0x65, 0x64, 0x43, 0x61, 0x6c, 0x6c, 0x2f, 0x73, 0x65, 0x71, 0x75,
  0x65, 0x6e, 0x74, 0x69, 0x61, 0x6c, 0x5f, 0x32, 0x2f, 0x73, 0x65, 0x70,
  0x61, 0x72, 0x61, 0x62, 0x6c, 0x65, 0x5f, 0x63, 0x6f, 0x6e, 0x76, 0x32,
  0x64, 0x5f, 0x31, 0x30, 0x2f, 0x73, 0x65, 0x70, 0x61, 0x72, 0x61, 0x62,
  0x6c, 0x65, 0x5f, 0x63, 0x6f, 0x6e, 0x76, 0x32, 0x64, 0x2f, 0x64, 0x65,
  0x70, 0x74, 0x68, 0x77, 0x69, 0x73, 0x65, 0x31, 0x00, 0x00, 0x00, 0x00,
  0x04, 0x00, 0x00, 0x00, 0x01, 0x00, 0x00, 0x00, 0x03, 0x00, 0x00, 0x00,
  0x03, 0x00, 0x00, 0x00, 0x03, 0x00, 0x00, 0x00, 0xd2, 0xf6, 0xff, 0xff,
  0xa8, 0x00, 0x00, 0x00, 0x13, 0x00, 0x00, 0x00, 0x0c, 0x00, 0x00, 0x00,
  0x04, 0x00, 0x00, 0x00, 0x5c, 0xf5, 0xff, 0xff, 0x8f, 0x00, 0x00, 0x00,
  0x73, 0x65, 0x71, 0x75, 0x65, 0x6e, 0x74, 0x69, 0x61, 0x6c, 0x5f, 0x32,
  0x2f, 0x73, 0x65, 0x70, 0x61, 0x72, 0x61, 0x62, 0x6c, 0x65, 0x5f, 0x63,
  0x6f, 0x6e, 0x76, 0x32, 0x64, 0x5f, 0x31, 0x30, 0x2f, 0x73, 0x65, 0x70,
  0x61, 0x72, 0x61, 0x62, 0x6c, 0x65, 0x5f, 0x63, 0x6f, 0x6e, 0x76, 0x32,
  0x64, 0x2f, 0x64, 0x65, 0x70, 0x74, 0x68, 0x77, 0x69, 0x73, 0x65, 0x3b,
  0x53, 0x74, 0x61, 0x74, 0x65, 0x66, 0x75, 0x6c, 0x50, 0x61, 0x72, 0x74,
  0x69, 0x74, 0x69, 0x6f, 0x6e, 0x65, 0x64, 0x43, 0x61, 0x6c, 0x6c, 0x2f,
  0x73, 0x65, 0x71, 0x75, 0x65, 0x6e, 0x74, 0x69, 0x61, 0x6c, 0x5f, 0x32,
  0x2f, 0x73, 0x65, 0x70, 0x61, 0x72, 0x61, 0x62, 0x6c, 0x65, 0x5f, 0x63,
  0x6f, 0x6e, 0x76, 0x32, 0x64, 0x5f, 0x31, 0x30, 0x2f, 0x73, 0x65, 0x70,
  0x61, 0x72, 0x61, 0x62, 0x6c, 0x65, 0x5f, 0x63, 0x6f, 0x6e, 0x76, 0x32,
  0x64, 0x2f, 0x64, 0x65, 0x70, 0x74, 0x68, 0x77, 0x69, 0x73, 0x65, 0x00,
  0x01, 0x00, 0x00, 0x00, 0x03, 0x00, 0x00, 0x00, 0x86, 0xf7, 0xff, 0xff,
  0x94, 0x00, 0x00, 0x00, 0x12, 0x00, 0x00, 0x00, 0x0c, 0x00, 0x00, 0x00,
  0x04, 0x00, 0x00, 0x00, 0x10, 0xf6, 0xff, 0xff, 0x79, 0x00, 0x00, 0x00,
  0x73, 0x65, 0x71, 0x75, 0x65, 0x6e, 0x74, 0x69, 0x61, 0x6c, 0x5f, 0x32,
  0x2f, 0x73, 0x65, 0x70, 0x61, 0x72, 0x61, 0x62, 0x6c, 0x65, 0x5f, 0x63,
  0x6f, 0x6e, 0x76, 0x32, 0x64, 0x5f, 0x39, 0x2f, 0x73, 0x65, 0x70, 0x61,
  0x72, 0x61, 0x62, 0x6c, 0x65, 0x5f, 0x63, 0x6f, 0x6e, 0x76, 0x32, 0x64,
  0x3b, 0x53, 0x74, 0x61, 0x74, 0x65, 0x66, 0x75, 0x6c, 0x50, 0x61, 0x72,
  0x74, 0x69, 0x74, 0x69, 0x6f, 0x6e, 0x65, 0x64, 0x43, 0x61, 0x6c, 0x6c,
  0x2f, 0x73, 0x65, 0x71, 0x75, 0x65, 0x6e, 0x74, 0x69, 0x61, 0x6c, 0x5f,
  0x32, 0x2f, 0x73, 0x65, 0x70, 0x61, 0x72, 0x61, 0x62, 0x6c, 0x65, 0x5f,
  0x63, 0x6f, 0x6e, 0x76, 0x32, 0x64, 0x5f, 0x39, 0x2f, 0x73, 0x65, 0x70,
  0x61, 0x72, 0x61, 0x62, 0x6c, 0x65, 0x5f, 0x63, 0x6f, 0x6e, 0x76, 0x32,
  0x64, 0x00, 0x00, 0x00, 0x04, 0x00, 0x00, 0x00, 0x03, 0x00, 0x00, 0x00,
  0x01, 0x00, 0x00, 0x00, 0x01, 0x00, 0x00, 0x00, 0x03, 0x00, 0x00, 0x00,
  0x32, 0xf8, 0xff, 0xff, 0xa8, 0x00, 0x00, 0x00, 0x11, 0x00, 0x00, 0x00,
  0x0c, 0x00, 0x00, 0x00, 0x04, 0x00, 0x00, 0x00, 0xbc, 0xf6, 0xff, 0xff,
  0x8d, 0x00, 0x00, 0x00, 0x73, 0x65, 0x71, 0x75, 0x65, 0x6e, 0x74, 0x69,
  0x61, 0x6c, 0x5f, 0x32, 0x2f, 0x73, 0x65, 0x70, 0x61, 0x72, 0x61, 0x62,
  0x6c, 0x65, 0x5f, 0x63, 0x6f, 0x6e, 0x76, 0x32, 0x64, 0x5f, 0x39, 0x2f,
  0x73, 0x65, 0x70, 0x61, 0x72, 0x61, 0x62, 0x6c, 0x65, 0x5f, 0x63, 0x6f,
  0x6e, 0x76, 0x32, 0x64, 0x2f, 0x64, 0x65, 0x70, 0x74, 0x68, 0x77, 0x69,
  0x73, 0x65, 0x3b, 0x53, 0x74, 0x61, 0x74, 0x65, 0x66, 0x75, 0x6c, 0x50,
  0x61, 0x72, 0x74, 0x69, 0x74, 0x69, 0x6f, 0x6e, 0x65, 0x64, 0x43, 0x61,
  0x6c, 0x6c, 0x2f, 0x73, 0x65, 0x71, 0x75, 0x65, 0x6e, 0x74, 0x69, 0x61,
  0x6c, 0x5f, 0x32, 0x2f, 0x73, 0x65, 0x70, 0x61, 0x72, 0x61, 0x62, 0x6c,
  0x65, 0x5f, 0x63, 0x6f, 0x6e, 0x76, 0x32, 0x64, 0x5f, 0x39, 0x2f, 0x73,
  0x65, 0x70, 0x61, 0x72, 0x61, 0x62, 0x6c, 0x65, 0x5f, 0x63, 0x6f, 0x6e,
  0x76, 0x32, 0x64, 0x2f, 0x64, 0x65, 0x70, 0x74, 0x68, 0x77, 0x69, 0x73,
  0x65, 0x00, 0x00, 0x00, 0x04, 0x00, 0x00, 0x00, 0x01, 0x00, 0x00, 0x00,
  0x03, 0x00, 0x00, 0x00, 0x03, 0x00, 0x00, 0x00, 0x03, 0x00, 0x00, 0x00,
  0xf2, 0xf8, 0xff, 0xff, 0x94, 0x00, 0x00, 0x00, 0x10, 0x00, 0x00, 0x00,
  0x0c, 0x00, 0x00, 0x00, 0x04, 0x00, 0x00, 0x00, 0x7c, 0xf7, 0xff, 0xff,
  0x79, 0x00, 0x00, 0x00, 0x73, 0x65, 0x71, 0x75, 0x65, 0x6e, 0x74, 0x69,
  0x61, 0x6c, 0x5f, 0x32, 0x2f, 0x73, 0x65, 0x70, 0x61, 0x72, 0x61, 0x62,
  0x6c, 0x65, 0x5f, 0x63, 0x6f, 0x6e, 0x76, 0x32, 0x64, 0x5f, 0x38, 0x2f,
  0x73, 0x65, 0x70, 0x61, 0x72, 0x61, 0x62, 0x6c, 0x65, 0x5f, 0x63, 0x6f,
  0x6e, 0x76, 0x32, 0x64, 0x3b, 0x53, 0x74, 0x61, 0x74, 0x65, 0x66, 0x75,
  0x6c, 0x50, 0x61, 0x72, 0x74, 0x69, 0x74, 0x69, 0x6f, 0x6e, 0x65, 0x64,
  0x43, 0x61, 0x6c, 0x6c, 0x2f, 0x73, 0x65, 0x71, 0x75, 0x65, 0x6e, 0x74,
  0x69, 0x61, 0x6c, 0x5f, 0x32, 0x2f, 0x73, 0x65, 0x70, 0x61, 0x72, 0x61,
  0x62, 0x6c, 0x65, 0x5f, 0x63, 0x6f, 0x6e, 0x76, 0x32, 0x64, 0x5f, 0x38,
  0x2f, 0x73, 0x65, 0x70, 0x61, 0x72, 0x61, 0x62, 0x6c, 0x65, 0x5f, 0x63,
  0x6f, 0x6e, 0x76, 0x32, 0x64, 0x00, 0x00, 0x00, 0x04, 0x00, 0x00, 0x00,
  0x03, 0x00, 0x00, 0x00, 0x01, 0x00, 0x00, 0x00, 0x01, 0x00, 0x00, 0x00,
  0x01, 0x00, 0x00, 0x00, 0x9e, 0xf9, 0xff, 0xff, 0xa8, 0x00, 0x00, 0x00,
  0x0f, 0x00, 0x00, 0x00, 0x0c, 0x00, 0x00, 0x00, 0x04, 0x00, 0x00, 0x00,
  0x28, 0xf8, 0xff, 0xff, 0x8e, 0x00, 0x00, 0x00, 0x73, 0x65, 0x71, 0x75,
  0x65, 0x6e, 0x74, 0x69, 0x61, 0x6c, 0x5f, 0x32, 0x2f, 0x73, 0x65, 0x70,
  0x61, 0x72, 0x61, 0x62, 0x6c, 0x65, 0x5f, 0x63, 0x6f, 0x6e, 0x76, 0x32,
  0x64, 0x5f, 0x38, 0x2f, 0x73, 0x65, 0x70, 0x61, 0x72, 0x61, 0x62, 0x6c,
  0x65, 0x5f, 0x63, 0x6f, 0x6e, 0x76, 0x32, 0x64, 0x2f, 0x64, 0x65, 0x70,
  0x74, 0x68, 0x77, 0x69, 0x73, 0x65, 0x3b, 0x53, 0x74, 0x61, 0x74, 0x65,
  0x66, 0x75, 0x6c, 0x50, 0x61, 0x72, 0x74, 0x69, 0x74, 0x69, 0x6f, 0x6e,
  0x65, 0x64, 0x43, 0x61, 0x6c, 0x6c, 0x2f, 0x73, 0x65, 0x71, 0x75, 0x65,
  0x6e, 0x74, 0x69, 0x61, 0x6c, 0x5f, 0x32, 0x2f, 0x73, 0x65, 0x70, 0x61,
  0x72, 0x61, 0x62, 0x6c, 0x65, 0x5f, 0x63, 0x6f, 0x6e, 0x76, 0x32, 0x64,
  0x5f, 0x38, 0x2f, 0x73, 0x65, 0x70, 0x61, 0x72, 0x61, 0x62, 0x6c, 0x65,
  0x5f, 0x63, 0x6f, 0x6e, 0x76, 0x32, 0x64, 0x2f, 0x64, 0x65, 0x70, 0x74,
  0x68, 0x77, 0x69, 0x73, 0x65, 0x31, 0x00, 0x00, 0x04, 0x00, 0x00, 0x00,
  0x01, 0x00, 0x00, 0x00, 0x03, 0x00, 0x00, 0x00, 0x03, 0x00, 0x00, 0x00,
  0x01, 0x00, 0x00, 0x00, 0x5e, 0xfa, 0xff, 0xff, 0xa8, 0x00, 0x00, 0x00,
  0x0e, 0x00, 0x00, 0x00, 0x0c, 0x00, 0x00, 0x00, 0x04, 0x00, 0x00, 0x00,
  0xe8, 0xf8, 0xff, 0xff, 0x8d, 0x00, 0x00, 0x00, 0x73, 0x65, 0x71, 0x75,
  0x65, 0x6e, 0x74, 0x69, 0x61, 0x6c, 0x5f, 0x32, 0x2f, 0x73, 0x65, 0x70,
  0x61, 0x72, 0x61, 0x62, 0x6c, 0x65, 0x5f, 0x63, 0x6f, 0x6e, 0x76, 0x32,
  0x64, 0x5f, 0x38, 0x2f, 0x73, 0x65, 0x70, 0x61, 0x72, 0x61, 0x62, 0x6c,
  0x65, 0x5f, 0x63, 0x6f, 0x6e, 0x76, 0x32, 0x64, 0x2f, 0x64, 0x65, 0x70,
  0x74, 0x68, 0x77, 0x69, 0x73, 0x65, 0x3b, 0x53, 0x74, 0x61, 0x74, 0x65,
  0x66, 0x75, 0x6c, 0x50, 0x61, 0x72, 0x74, 0x69, 0x74, 0x69, 0x6f, 0x6e,
  0x65, 0x64, 0x43, 0x61, 0x6c, 0x6c, 0x2f, 0x73, 0x65, 0x71, 0x75, 0x65,
  0x6e, 0x74, 0x69, 0x61, 0x6c, 0x5f, 0x32, 0x2f, 0x73, 0x65, 0x70, 0x61,
  0x72, 0x61, 0x62, 0x6c, 0x65, 0x5f, 0x63, 0x6f, 0x6e, 0x76, 0x32, 0x64,
  0x5f, 0x38, 0x2f, 0x73, 0x65, 0x70, 0x61, 0x72, 0x61, 0x62, 0x6c, 0x65,
  0x5f, 0x63, 0x6f, 0x6e, 0x76, 0x32, 0x64, 0x2f, 0x64, 0x65, 0x70, 0x74,
  0x68, 0x77, 0x69, 0x73, 0x65, 0x00, 0x00, 0x00, 0x01, 0x00, 0x00, 0x00,
  0x01, 0x00, 0x00, 0x00, 0x12, 0xfb, 0xff, 0xff, 0x68, 0x00, 0x00, 0x00,
